'<pad>'
'<EOS>'
'the_'
'._'
', _'
'of_'
'and_'
'to_'
'a_'
'in_'
'is_'
's_'
'for_'
'The_'
''_'
'that_'
'_'
'-_'
'on_'
'with_'
'be_'
'. _'
'I_'
'as_'
'you_'
'are_'
'by_'
'it_'
'was_'
'have_'
'not_'
'or_'
'at_'
'an_'
'this_'
'from_'
'has_'
'will_'
'its_'
'?_'
'can_'
'their_'
'all_'
'his_'
't_'
'he_'
'which_'
'we_'
'In_'
'been_'
'It_'
'had_'
'were_'
' (_'
' - _'
'ing_'
'more_'
'but_'
'your_'
') _'
'one_'
'they_'
'would_'
'A_'
'also_'
'up_'
'ed_'
'should_'
'out_'
'He_'
': _'
'other_'
'd_'
'my_'
'We_'
'time_'
'about_'
'people_'
'United_'
'e_'
'into_'
'me_'
'her_'
'new_'
'China_'
'so_'
'This_'
'do_'
'our_'
'no_'
'said_'
'development_'
',_'
'there_'
'than_'
'countries_'
'international_'
'y_'
'  _'
'But_'
'who_'
'like_'
'some_'
'if_'
'/_'
'such_'
'system_'
'them_'
'two_'
'when_'
'Nations_'
'; _'
'shall_'
'only_'
'work_'
'You_'
'could_'
'may_'
'what_'
'any_'
' , _'
'him_'
'made_'
';_'
'over_'
'between_'
'must_'
'under_'
'world_'
'these_'
'General_'
'1_'
'make_'
'well_'
'she_'
' "_'
'’_'
'first_'
'years_'
'us_'
'through_'
'economic_'
'year_'
'most_'
'very_'
'States_'
'If_'
'And_'
'm_'
'now_'
'just_'
'They_'
'many_'
'use_'
'To_'
'Council_'
'es_'
'those_'
'good_'
'!_'
'know_'
'way_'
'need_'
'take_'
'(_'
'after_'
'country_'
'Committee_'
'"_'
'2_'
'important_'
'right_'
'how_'
'get_'
're_'
'see_'
'information_'
'used_'
'life_'
'long_'
'She_'
'much_'
'Mr_'
'Chinese_'
'human_'
'high_'
'" _'
'3_'
'support_'
'As_'
'There_'
'process_'
'before_'
'go_'
'being_'
'report_'
'man_'
'government_'
'ly_'
'down_'
'national_'
'r_'
'because_'
'rights_'
'activities_'
'resolution_'
'peace_'
'day_'
'n_'
'even_'
'5_'
'against_'
'did_'
'er_'
'then_'
'Article_'
'back_'
'still_'
'don_'
'What_'
'part_'
'social_'
'where_'
'three_'
'law_'
'women_'
'number_'
'control_'
'level_'
'same_'
'both_'
'think_'
'financial_'
'water_'
'cooperation_'
'4_'
'per_'
'public_'
've_'
'including_'
'last_'
'order_'
'market_'
'off_'
'For_'
'own_'
'political_'
'without_'
'Government_'
'want_'
'i_'
'That_'
'each_'
'When_'
'within_'
'able_'
'non_'
'S_'
'security_'
'At_'
'great_'
'help_'
' – _'
')._'
'resources_'
'set_'
'too_'
'during_'
' $_'
'State_'
'come_'
'Secretary_'
'l_'
' ._'
'management_'
'll_'
'different_'
'1994_'
'organizations_'
'here_'
'company_'
'end_'
'Assembly_'
'efforts_'
'say_'
'business_'
'based_'
'place_'
'6_'
'children_'
'while_'
'' _'
'No_'
'provide_'
'paper_'
'little_'
'areas_'
'power_'
'state_'
'always_'
'al_'
'ng_'
'measures_'
'put_'
'does_'
'method_'
'further_'
'7_'
'growth_'
'less_'
'every_'
'data_'
'1993_'
'area_'
'policy_'
'meeting_'
'So_'
'going_'
'developing_'
'small_'
'might_'
'become_'
'change_'
'old_'
'problems_'
'better_'
'community_'
'8_'
'give_'
'study_'
'problem_'
'situation_'
'never_'
'next_'
'technology_'
'health_'
'foreign_'
'trade_'
'programme_'
'role_'
'o_'
'implementation_'
'services_'
'global_'
'research_'
'economy_'
'US_'
'around_'
'since_'
'c_'
'education_'
'large_'
'local_'
'full_'
'assistance_'
'members_'
'few_'
'among_'
'10_'
'another_'
'regional_'
'period_'
'region_'
'got_'
'taken_'
'), _'
'Commission_'
'often_'
'case_'
'found_'
'term_'
'money_'
'future_'
':_'
'special_'
'says_'
'quality_'
'means_'
'action_'
'military_'
'present_'
'issues_'
'His_'
'major_'
'All_'
'field_'
'On_'
'home_'
'production_'
'again_'
'International_'
'cent_'
'000_'
'find_'
'continue_'
'needs_'
'look_'
'provided_'
'love_'
'effective_'
'best_'
'necessary_'
'current_'
'My_'
'million_'
'possible_'
'9_'
'Security_'
'person_'
'am_'
'away_'
'decision_'
'view_'
'given_'
'However_'
'working_'
'With_'
'food_'
'already_'
'point_'
'President_'
'? _'
'relevant_'
'effect_'
'application_'
'energy_'
'men_'
'ion_'
'making_'
'service_'
'family_'
'session_'
'land_'
'result_'
'related_'
'results_'
'far_'
'How_'
'group_'
'training_'
'rate_'
'second_'
'following_'
'cost_'
'class_'
'One_'
'held_'
'called_'
'programmes_'
'above_'
'People_'
'main_'
'increase_'
'days_'
'really_'
'upon_'
'New_'
'general_'
'environment_'
'design_'
'things_'
'various_'
'value_'
'form_'
'today_'
'question_'
'let_'
'past_'
'basis_'
'using_'
'parties_'
'Republic_'
'particular_'
'draft_'
'ensure_'
'ers_'
'conditions_'
'established_'
'staff_'
'building_'
'course_'
'free_'
'line_'
'kind_'
'body_'
'together_'
'Africa_'
'hand_'
'legal_'
'nuclear_'
'cannot_'
'Conference_'
'h_'
'20_'
'school_'
' ( _'
'took_'
'low_'
'something_'
'investment_'
'face_'
'common_'
'population_'
'real_'
'Development_'
'light_'
'products_'
'fact_'
'project_'
'developed_'
'European_'
'recent_'
'plan_'
'model_'
'left_'
'progress_'
'These_'
'keep_'
'% _'
'1995_'
'American_'
'protection_'
'analysis_'
'issue_'
'open_'
'air_'
'party_'
'came_'
'big_'
' “_'
'C_'
'After_'
'least_'
'several_'
'thought_'
'whole_'
'respect_'
'g_'
'self_'
'accordance_'
'believe_'
'according_'
'industry_'
'adopted_'
'oil_'
'five_'
'hope_'
'whether_'
'technical_'
'matter_'
'force_'
'South_'
'An_'
'institutions_'
'15_'
'especially_'
'four_'
'name_'
'levels_'
'America_'
'interest_'
'key_'
'World_'
'article_'
'age_'
'city_'
'1996_'
'play_'
'attention_'
'early_'
'improve_'
'administrative_'
'account_'
'show_'
'ic_'
'experience_'
'operation_'
'particularly_'
'30_'
'example_'
'house_'
'required_'
'side_'
'enough_'
'war_'
'Europe_'
'head_'
'others_'
'ation_'
'k_'
'however_'
'Do_'
'Special_'
'price_'
'total_'
'strong_'
'went_'
'hard_'
'include_'
'b_'
'why_'
'policies_'
'operations_'
'delegation_'
'once_'
'society_'
'Convention_'
'students_'
'room_'
'thing_'
'week_'
'Objective_'
'paragraph_'
'companies_'
'structure_'
'tell_'
'higher_'
'feel_'
'cases_'
'capital_'
'done_'
'ever_'
'basic_'
'specific_'
'groups_'
'performance_'
'provisions_'
'meet_'
'pay_'
'available_'
'12_'
', " _'
'appropriate_'
'young_'
'Organization_'
'child_'
'clear_'
'concerned_'
'call_'
'   _'
'systems_'
'until_'
'months_'
'proposed_'
'space_'
'times_'
'fully_'
'rs_'
'importance_'
'heart_'
'care_'
'projects_'
'job_'
'yet_'
'Some_'
'treatment_'
'. "_'
'U_'
'environmental_'
'risk_'
'private_'
'short_'
'item_'
'considered_'
'position_'
'le_'
'night_'
'approach_'
'Law_'
'Now_'
'towards_'
'construction_'
'certain_'
'English_'
'run_'
'By_'
'mind_'
'capacity_'
'led_'
'prices_'
'regard_'
'test_'
'difficult_'
'changes_'
'addition_'
'equipment_'
'! _'
'subject_'
'0_'
'ness_'
'cause_'
'forward_'
'lot_'
'having_'
'serious_'
'persons_'
'words_'
'requirements_'
'December_'
'half_'
'natural_'
'taking_'
'reports_'
'crisis_'
'promote_'
'type_'
'terms_'
'personnel_'
'told_'
'office_'
'close_'
'live_'
'Group_'
'month_'
'amount_'
'ts_'
'makes_'
'property_'
'keeping_'
'agreement_'
'team_'
'ago_'
'didn_'
'asked_'
'ability_'
'responsibility_'
'living_'
'material_'
'D_'
'50_'
'third_'
'Our_'
'needed_'
'product_'
'11_'
'seen_'
'decided_'
'bring_'
'start_'
'Then_'
'rules_'
'Governments_'
'review_'
'rather_'
'markets_'
'B_'
'income_'
'costs_'
'access_'
'forces_'
' . _'
'history_'
' : _'
'agenda_'
'agencies_'
'increased_'
'P_'
'car_'
'governmental_'
'itself_'
'impact_'
'May_'
'ment_'
'demand_'
'known_'
'therefore_'
'National_'
'1992_'
'doing_'
'continued_'
'nothing_'
'bank_'
'Japan_'
'nature_'
'deal_'
'sector_'
'methods_'
'along_'
'member_'
'mother_'
'top_'
'sure_'
'likely_'
'almost_'
'hours_'
'ies_'
'budget_'
'develop_'
'try_'
' '_'
'planning_'
'safety_'
'turn_'
'st_'
'police_'
'practice_'
'While_'
'- _'
'God_'
'soon_'
'return_'
'ways_'
'began_'
'Member_'
'ble_'
'Many_'
'due_'
'red_'
'language_'
'humanitarian_'
'culture_'
'exchange_'
'E_'
'concern_'
'understand_'
'leave_'
'book_'
'ry_'
'authorities_'
'14_'
'administration_'
'woman_'
'status_'
'fire_'
' ) _'
'representative_'
'reason_'
'banks_'
'individual_'
'funds_'
'significant_'
'received_'
'Beijing_'
'step_'
'additional_'
'son_'
'Don_'
'principle_'
'eyes_'
'ons_'
'pressure_'
'trying_'
'though_'
'later_'
'Asia_'
'Well_'
'move_'
'reform_'
'materials_'
'Why_'
'mean_'
'won_'
'relations_'
'directly_'
'single_'
'African_'
'parts_'
'effects_'
'longer_'
'consideration_'
'conflict_'
'central_'
'theory_'
'share_'
'meetings_'
'network_'
'create_'
'easy_'
'idea_'
'outside_'
'death_'
'debt_'
'billion_'
'cultural_'
'enterprises_'
'establishment_'
'relationship_'
'workers_'
'Let_'
'Is_'
'poor_'
'saw_'
'organization_'
'potential_'
'ous_'
'ty_'
'16_'
'interests_'
'East_'
'consider_'
'lead_'
'existing_'
'bad_'
'25_'
'father_'
'de_'
'themselves_'
'domestic_'
'looking_'
'six_'
'across_'
'greater_'
'address_'
'table_'
'weapons_'
'rates_'
'knowledge_'
' -- _'
'friends_'
'stability_'
'date_'
'former_'
'Programme_'
'computer_'
'hold_'
'Bank_'
'p_'
'function_'
'department_'
'agreed_'
'principles_'
'India_'
'response_'
'te_'
'wish_'
'18_'
'Department_'
'provides_'
'21_'
'," _'
'plans_'
'expected_'
'13_'
'responsible_'
'sense_'
'June_'
'tax_'
'thus_'
'seems_'
'July_'
'civil_'
'standards_'
'th_'
'factors_'
'establish_'
'tion_'
'x_'
'achieve_'
'bodies_'
'Please_'
'true_'
'positive_'
'comprehensive_'
'stop_'
'Human_'
'regulations_'
'Board_'
', "_'
'September_'
'word_'
'leaders_'
'cut_'
'scale_'
'door_'
'ce_'
'traditional_'
'act_'
'anything_'
'coming_'
'supply_'
'criminal_'
'solution_'
'goods_'
'percent_'
'gave_'
'laws_'
'talk_'
'questions_'
'Economic_'
'follow_'
'introduced_'
'please_'
'request_'
'ask_'
'poverty_'
'growing_'
'mechanism_'
'brought_'
'reduce_'
'complete_'
'lost_'
'Your_'
'Rights_'
'media_'
'” _'
'success_'
'quite_'
'strategy_'
'wide_'
'strengthen_'
'context_'
'court_'
'gas_'
'involved_'
'usually_'
'opportunity_'
'post_'
'officials_'
'increasing_'
'modern_'
'read_'
'near_'
'Social_'
'lower_'
'statement_'
'Since_'
'governments_'
'essential_'
'himself_'
'focus_'
'document_'
'17_'
'ity_'
'sustainable_'
'stage_'
'carried_'
'framework_'
'comes_'
'note_'
'Central_'
'remain_'
'credit_'
'concerning_'
'nt_'
'enterprise_'
'direct_'
'limited_'
'front_'
'October_'
'source_'
'joint_'
'noted_'
'um_'
'activity_'
'ground_'
'road_'
'white_'
'surface_'
'48_'
'game_'
'simple_'
'similar_'
'expressed_'
'drug_'
'active_'
'behind_'
'effort_'
'regions_'
'Israel_'
'points_'
'list_'
'ready_'
'caused_'
'girl_'
'build_'
'text_'
'Iraq_'
'whose_'
'prevent_'
'participation_'
'late_'
'carry_'
'Where_'
'recommendations_'
'overall_'
''>_'
'Hong_'
'19_'
'coordination_'
'Oh_'
'looked_'
'medical_'
'either_'
'March_'
'understanding_'
'lack_'
'representatives_'
'mission_'
'monitoring_'
'final_'
'cold_'
'rule_'
'='_'
'standard_'
'offer_'
'influence_'
'24_'
'moment_'
'purpose_'
'sound_'
'blood_'
'ions_'
'shows_'
'deep_'
'Can_'
'reported_'
'size_'
'Kong_'
'rise_'
'Union_'
'decisions_'
'started_'
'procedures_'
'felt_'
'discussed_'
'violence_'
'University_'
'ship_'
'During_'
'Even_'
'morning_'
'news_'
'provision_'
'transfer_'
'distribution_'
'remains_'
'doesn_'
'ting_'
'arms_'
'buy_'
'science_'
'"._'
'functions_'
'M_'
'L_'
'states_'
'task_'
'official_'
'became_'
'round_'
'sea_'
'heard_'
'100_'
'recently_'
'presented_'
'rest_'
'ethnic_'
'lives_'
'fall_'
'providing_'
'unit_'
'22_'
'anti_'
'personal_'
'crime_'
'II_'
'content_'
'en_'
'program_'
'Because_'
'wife_'
'allow_'
'se_'
'range_'
'wanted_'
'applied_'
'exercise_'
'First_'
'ne_'
'communication_'
'section_'
'evidence_'
'getting_'
'everything_'
'November_'
'hands_'
'balance_'
'apply_'
'included_'
'beginning_'
'Although_'
'flow_'
'bit_'
'average_'
'disease_'
'Her_'
'T_'
'boy_'
'designed_'
'ors_'
'friend_'
'mainly_'
'reached_'
'software_'
'internal_'
'prepared_'
'happy_'
'31_'
'studies_'
'implement_'
'Fund_'
'French_'
'met_'
'actions_'
'Russia_'
'stock_'
'charge_'
'Office_'
'base_'
'f_'
'goal_'
'mandate_'
'steps_'
'image_'
'speed_'
'scientific_'
'23_'
'April_'
'efficiency_'
'connection_'
'matters_'
'actually_'
'works_'
'strength_'
'priority_'
'someone_'
'protect_'
'characteristics_'
'Secretariat_'
'below_'
'learn_'
'machine_'
'rich_'
'resolutions_'
'departments_'
'takes_'
'Most_'
'From_'
'submitted_'
'industrial_'
'hear_'
'beautiful_'
'previous_'
'“_'
'ted_'
'contained_'
'record_'
'patients_'
'Such_'
'rural_'
'ns_'
'board_'
'quickly_'
'confidence_'
'employment_'
'regular_'
'North_'
'export_'
'40_'
'UNDP_'
'primary_'
'damage_'
'seem_'
'paid_'
'fine_'
'items_'
'gonna_'
'inside_'
'complex_'
'ring_'
'insurance_'
'Russian_'
'avoid_'
'negotiations_'
'commitment_'
'R_'
'Action_'
'alone_'
'require_'
'story_'
'Of_'
'aspects_'
'maintain_'
'Yes_'
'black_'
'studied_'
'throughout_'
'forms_'
'benefits_'
'benefit_'
'parents_'
'economies_'
'created_'
'art_'
'turned_'
'leading_'
'nation_'
'Party_'
'u_'
' _'
'documents_'
'January_'
'Not_'
'safe_'
'letter_'
'freedom_'
'ling_'
'circumstances_'
'practical_'
'learning_'
'authority_'
'concept_'
'century_'
'sent_'
'series_'
'approval_'
'units_'
'annual_'
'wrong_'
'August_'
'affected_'
'teaching_'
'improved_'
'hot_'
'condition_'
'fundamental_'
'contract_'
'facilities_'
'requested_'
'refugees_'
'fields_'
'contributions_'
'achieved_'
'enhance_'
'added_'
'vote_'
'music_'
'climate_'
'stand_'
'cover_'
'Germany_'
'tried_'
'code_'
'visit_'
'election_'
'site_'
'president_'
'trust_'
'physical_'
'According_'
'speak_'
'temperature_'
'investors_'
'commercial_'
'stay_'
'effectively_'
'ar_'
'citizens_'
'normal_'
'fund_'
'France_'
'spirit_'
'thinking_'
'fast_'
'shown_'
'High_'
'approved_'
'27_'
'schools_'
'democracy_'
'processing_'
'democratic_'
'king_'
'direction_'
'heavy_'
'emergency_'
'aid_'
'resource_'
'entire_'
'entitled_'
'sales_'
'successful_'
'yourself_'
'loss_'
'knew_'
'objectives_'
'arrangements_'
'urban_'
'Korea_'
'beyond_'
'Agreement_'
'reasons_'
'Therefore_'
'agreements_'
'weeks_'
'26_'
'reach_'
'acts_'
'elements_'
'bed_'
'Chairman_'
'answer_'
'conference_'
'reference_'
'assets_'
'clearly_'
'running_'
'supported_'
'armed_'
'everyone_'
'eat_'
'Women_'
'goals_'
'addressed_'
'simply_'
'maintenance_'
'events_'
'Just_'
'travel_'
'target_'
'issued_'
'ate_'
'agency_'
'O_'
'showed_'
'opportunities_'
'strengthening_'
'currently_'
'relating_'
'critical_'
'firm_'
'Its_'
'views_'
'middle_'
'largest_'
'mine_'
'built_'
'sometimes_'
'28_'
'1991_'
'discussion_'
'territory_'
'else_'
'produce_'
'competition_'
'challenges_'
'York_'
'types_'
'professional_'
'promoting_'
'Shanghai_'
'accept_'
'probably_'
'relief_'
'external_'
'manner_'
'wind_'
'immediately_'
'degree_'
'green_'
'individuals_'
'medium_'
'equal_'
'style_'
'; (_'
'enjoy_'
'evaluation_'
'`_'
'mass_'
'independent_'
'Their_'
'reduction_'
'concerns_'
'written_'
'peaceful_'
'objective_'
'includes_'
'net_'
'town_'
'proposal_'
'conduct_'
'regarding_'
'factor_'
'co_'
'cities_'
'contribution_'
'requires_'
'justice_'
'choice_'
'movement_'
'assessment_'
'inter_'
'proposals_'
'Mission_'
'serve_'
'sides_'
'Court_'
'core_'
'settlement_'
'prevention_'
'Palestinian_'
'measure_'
'Two_'
'break_'
'delegations_'
'minutes_'
'fell_'
'allowed_'
'useful_'
'hit_'
'heat_'
'49_'
'character_'
'EU_'
'increasingly_'
'ten_'
'difference_'
'color_'
'ally_'
'changed_'
'procedure_'
'phase_'
'legislation_'
'failure_'
'original_'
'check_'
'event_'
'described_'
'contribute_'
'skin_'
'ive_'
'steel_'
'goes_'
'Congress_'
'hour_'
'Charter_'
'etc_'
'Today_'
'highly_'
'ideas_'
'applications_'
'mutual_'
'teacher_'
'British_'
'dead_'
'receive_'
'Are_'
'improving_'
'sign_'
'dialogue_'
'G_'
'Asian_'
'West_'
'earth_'
'advanced_'
'hair_'
'saying_'
'Moreover_'
'fear_'
'estimated_'
'looks_'
'29_'
'values_'
'improvement_'
'chance_'
'books_'
'integration_'
'Iran_'
'Any_'
'Other_'
'file_'
'film_'
'plant_'
'seek_'
'stress_'
'actual_'
'determination_'
'Centre_'
'Middle_'
'user_'
'aimed_'
'fish_'
'threat_'
'skills_'
'gold_'
'mentioned_'
'wants_'
'causes_'
'search_'
'earlier_'
'voice_'
'organs_'
'assist_'
'."_'
'tic_'
'nations_'
'easily_'
'worked_'
'sources_'
'determined_'
'technologies_'
'leadership_'
'N_'
'rapid_'
'gone_'
'nearly_'
'consumption_'
'mechanisms_'
'Declaration_'
'border_'
'Minister_'
'): _'
'preparation_'
'experts_'
'uses_'
'remember_'
'begin_'
'Arab_'
'card_'
'seemed_'
'add_'
'affairs_'
'Under_'
'sun_'
'London_'
'agricultural_'
' " _'
'object_'
'opening_'
'chemical_'
'Yet_'
'wall_'
'Foreign_'
'Working_'
'consultations_'
'welcome_'
'F_'
'organized_'
'waste_'
'although_'
'places_'
'instead_'
'challenge_'
'clean_'
'gives_'
'tree_'
'Those_'
'47_'
'ie_'
'difficulties_'
'played_'
'huge_'
'limit_'
'finance_'
'recognized_'
'.”_'
'Also_'
'transport_'
'concrete_'
'committed_'
'Finally_'
'toward_'
'isn_'
'religious_'
'examination_'
'message_'
'drive_'
'implemented_'
'truth_'
'send_'
'ings_'
'conducted_'
'disarmament_'
'encourage_'
'majority_'
'attack_'
'operational_'
'promotion_'
'scope_'
'seven_'
'box_'
'contact_'
'Western_'
'Executive_'
',” _'
'summer_'
'weight_'
'February_'
'generally_'
'negative_'
'kept_'
' & _'
'’ _'
'traffic_'
'participate_'
'nor_'
'continues_'
'phone_'
'raised_'
'fight_'
'financing_'
'Each_'
'Japanese_'
'transition_'
'giving_'
'eye_'
'produced_'
'write_'
',' _'
'train_'
'dark_'
'users_'
'owned_'
'compared_'
'cash_'
'followed_'
'widely_'
'--_'
'ding_'
'permanent_'
'element_'
'advantage_'
'purposes_'
'island_'
'popular_'
'ge_'
'save_'
'yesterday_'
'features_'
'families_'
'ter_'
'obligations_'
'developments_'
'affect_'
'1990_'
'feeling_'
'win_'
'finally_'
'determine_'
'killed_'
'agree_'
'choose_'
'pollution_'
'writing_'
'ahead_'
'raise_'
'zone_'
'dollars_'
'cell_'
'yuan_'
'cross_'
'cells_'
'debate_'
'strategies_'
'grow_'
'customers_'
'calls_'
'ones_'
'cy_'
'Peace_'
'walk_'
'lines_'
'extent_'
'behalf_'
'inflation_'
'fixed_'
'opened_'
'conflicts_'
'playing_'
'die_'
'coal_'
'opinion_'
'60_'
'associated_'
'talks_'
'happened_'
'sleep_'
'Bosnia_'
'signed_'
'indicated_'
'anyone_'
'covered_'
'weather_'
'trend_'
'infrastructure_'
'civilian_'
'bilateral_'
'labour_'
'discuss_'
'reduced_'
'responsibilities_'
'chief_'
'dog_'
'span_'
'el_'
'multilateral_'
'trading_'
'technique_'
'consequences_'
'presence_'
'ful_'
'adequate_'
'completely_'
'peoples_'
'efficient_'
'moving_'
'worth_'
'consensus_'
'More_'
'currency_'
'stated_'
'yang_'
'labor_'
'Another_'
'duty_'
'myself_'
'elections_'
'pain_'
'operating_'
'soil_'
'path_'
'holding_'
'Obama_'
'forest_'
'Every_'
'offices_'
'jobs_'
'expect_'
'window_'
'facilitate_'
'appear_'
'creation_'
'piece_'
'component_'
'biggest_'
'undertaken_'
'Tibet_'
'wait_'
'completed_'
'ls_'
'unique_'
'recovery_'
'double_'
'recommended_'
'memory_'
'System_'
'Taiwan_'
'center_'
'integrated_'
'Chapter_'
'Only_'
'disaster_'
'relatively_'
'behavior_'
'obtained_'
'multi_'
'press_'
'reading_'
'baby_'
'Internet_'
'guarantee_'
'ant_'
'failed_'
'interpretation_'
'City_'
'closely_'
'Indeed_'
'sell_'
'instruments_'
'talking_'
'investigation_'
'broad_'
'enable_'
'spread_'
'Rwanda_'
'ism_'
'watch_'
'fair_'
'kinds_'
'standing_'
'strategic_'
'drugs_'
'， _'
'reality_'
'author_'
'floor_'
'spending_'
'Information_'
'Who_'
'perhaps_'
'housing_'
'ss_'
'passed_'
'becomes_'
'device_'
'spent_'
'interested_'
'inspection_'
'ice_'
'fuel_'
'securities_'
'Have_'
'engineering_'
'conclusion_'
'Yeah_'
'Here_'
'husband_'
'troops_'
'45_'
'Agency_'
'funding_'
'continuing_'
'output_'
'35_'
'ch_'
'regime_'
'ying_'
'pass_'
'despite_'
'rising_'
'", _'
'effectiveness_'
'died_'
'powerful_'
'algorithm_'
'brain_'
'initial_'
'generation_'
'eight_'
'becoming_'
'express_'
'pattern_'
'adoption_'
'stable_'
'bear_'
'committee_'
'lose_'
'supervision_'
'properties_'
'Both_'
'enter_'
'perfect_'
'500_'
'dynamic_'
'actively_'
'picture_'
'suggested_'
'officers_'
'illegal_'
'2008_'
'annex_'
'payment_'
'student_'
'expression_'
'daily_'
'Summit_'
'Thus_'
'river_'
'shape_'
'Israeli_'
'Based_'
'helped_'
'figure_'
'dream_'
'registration_'
'cal_'
'articles_'
'technological_'
'Pacific_'
'placed_'
'slow_'
'ball_'
'manager_'
'girls_'
'ties_'
'street_'
'Second_'
'blue_'
'investigate_'
'referred_'
'V_'
'Advisory_'
'changing_'
'setting_'
'separate_'
'Management_'
'ancient_'
'Good_'
'advice_'
'practices_'
'meaning_'
'analyzed_'
'tomorrow_'
'join_'
'clinical_'
'ma_'
'cancer_'
'Once_'
'TV_'
'mode_'
'adopt_'
'educational_'
'violations_'
'published_'
'risks_'
'ine_'
'specialized_'
'crimes_'
'numbers_'
'attempt_'
'posts_'
'differences_'
'famous_'
'structures_'
'statements_'
'sky_'
'sanctions_'
'processes_'
'doubt_'
'store_'
'advance_'
'online_'
'Britain_'
'Canada_'
'Australia_'
'latest_'
'reflect_'
'proper_'
'Yugoslavia_'
'German_'
'specified_'
'sex_'
'independence_'
'sm_'
'leader_'
'thank_'
'Affairs_'
'moved_'
'200_'
'ance_'
'glass_'
'discrimination_'
'certainly_'
'sort_'
'survey_'
'feet_'
'notes_'
'-- _'
'accepted_'
'decades_'
'immediate_'
'delivery_'
'returned_'
'appears_'
'speech_'
'decide_'
'aim_'
'contains_'
'college_'
'Research_'
'components_'
'dollar_'
'z_'
'born_'
'teachers_'
'requests_'
'Afghanistan_'
'video_'
'station_'
'abroad_'
'solutions_'
'emerging_'
'autonomous_'
'map_'
'forty_'
'closed_'
'tool_'
'H_'
'Cooperation_'
'offered_'
'submit_'
'dangerous_'
'ze_'
'variety_'
'compensation_'
'except_'
'solve_'
'page_'
'foundation_'
'senior_'
'Ministry_'
'Trade_'
'implementing_'
'sectors_'
'historical_'
'south_'
'tasks_'
'army_'
'Y_'
'1997_'
'spend_'
'testing_'
'larger_'
'defined_'
'situations_'
'indeed_'
'tools_'
'wear_'
'animal_'
'accounting_'
'expansion_'
'knows_'
'trees_'
'detailed_'
'Force_'
'season_'
'missions_'
'highest_'
'extremely_'
'bottom_'
'ds_'
'Service_'
'Pakistan_'
'informed_'
'claims_'
'animals_'
'claim_'
'Furthermore_'
'dated_'
'significance_'
'healthy_'
'rose_'
'communications_'
'happen_'
'aircraft_'
'victims_'
'facing_'
'Herzegovina_'
'campaign_'
'learned_'
'plants_'
'collection_'
'Treaty_'
'unless_'
'] _'
'database_'
'signal_'
'forced_'
'couple_'
'membership_'
'executive_'
'UNICEF_'
'structural_'
'urgent_'
'supplies_'
'explore_'
'index_'
'reforms_'
'concluded_'
'Great_'
'exist_'
'partners_'
'speaking_'
'believed_'
'recognition_'
'electric_'
'remained_'
'planned_'
'fiscal_'
'sis_'
'gets_'
'firms_'
'drop_'
'solid_'
'greatly_'
'UN_'
'Administration_'
'establishing_'
'identified_'
'respond_'
'creating_'
'Representative_'
'soft_'
'relation_'
'diseases_'
'reporting_'
'possibility_'
'host_'
'ia_'
'spring_'
'television_'
'Federal_'
'wealth_'
'realize_'
'rain_'
'daughter_'
'adjustment_'
'ton_'
'warm_'
'ian_'
'techniques_'
'Look_'
'details_'
'Administrative_'
'trouble_'
'models_'
'Did_'
'decade_'
'draw_'
'whom_'
'follows_'
'announced_'
'Institute_'
'initiative_'
'organ_'
'identify_'
'crucial_'
'resistance_'
'ments_'
'marriage_'
'background_'
'customer_'
'sing_'
'kill_'
'stone_'
'Agenda_'
'initiatives_'
'dry_'
'formed_'
'X_'
'Ms_'
'mining_'
'judicial_'
'clothes_'
'wood_'
'medicine_'
'race_'
'John_'
'accounts_'
'hotel_'
'gender_'
'thousands_'
'severe_'
'carrying_'
'Americans_'
'communities_'
'manufacturing_'
'losses_'
'resulting_'
'ad_'
'carbon_'
'western_'
'ping_'
'weapon_'
'waiting_'
'competent_'
'commitments_'
'dealing_'
'fresh_'
'acid_'
'link_'
'id_'
'brother_'
'32_'
'employees_'
'terrorism_'
'gain_'
'nice_'
'Latin_'
'Will_'
'wave_'
'prepare_'
'corresponding_'
'sports_'
'shares_'
'quarter_'
'defense_'
'dan_'
'couldn_'
'guy_'
'elected_'
'ensuring_'
'female_'
'existence_'
'career_'
'guidelines_'
'Conclusion_'
'release_'
'51_'
'desire_'
'ical_'
'substantive_'
'chapter_'
'entered_'
'appeal_'
'Come_'
'Olympic_'
' [_'
'excellent_'
'weak_'
'Director_'
'revised_'
'drink_'
'ongoing_'
'Be_'
'wasn_'
'metal_'
'discussions_'
'relative_'
'correct_'
'Non_'
'registered_'
'rapidly_'
'location_'
'treaty_'
'Iraqi_'
'demands_'
'vehicles_'
'observers_'
'Federation_'
'instrument_'
'lay_'
'frequency_'
'starting_'
'attacks_'
'believes_'
'match_'
'electronic_'
'vital_'
'focused_'
'sale_'
'" ._'
'sufficient_'
'mouth_'
'respectively_'
'bus_'
': "_'
'volume_'
'ke_'
');_'
'secret_'
'appreciation_'
'reasonable_'
'enemy_'
' )._'
'gradually_'
'sorry_'
'university_'
'suffering_'
'ran_'
'accident_'
'length_'
'aware_'
'... _'
'zed_'
'reflected_'
'equality_'
'ended_'
' ($_'
'ess_'
'2007_'
'banking_'
'awareness_'
'soldiers_'
'violation_'
'les_'
'Three_'
'supports_'
'suitable_'
'hospital_'
'Egypt_'
'70_'
'master_'
'engaged_'
'statistics_'
'fourth_'
'combined_'
'shot_'
'proved_'
'otherwise_'
'ning_'
'guide_'
'Year_'
'universal_'
'transportation_'
'leaving_'
'moral_'
'Despite_'
'doctor_'
'decline_'
'fighting_'
'exports_'
'Mrs_'
'engine_'
'industries_'
'Earth_'
'cycle_'
'experiment_'
'reducing_'
'pretty_'
'46_'
'track_'
'innovation_'
'lies_'
'2000_'
'Division_'
'respective_'
'powers_'
'sites_'
'prior_'
'species_'
'consumer_'
'Rapporteur_'
'agent_'
'offers_'
'Washington_'
'distance_'
'enforcement_'
'appeared_'
'village_'
'considerable_'
'institutional_'
'zation_'
'rock_'
'pre_'
'increases_'
'Health_'
'located_'
'boat_'
'33_'
'intended_'
'error_'
')_'
'nd_'
'ary_'
'youth_'
'vehicle_'
' '
'north_'
'controlled_'
'investigated_'
'trial_'
'Constitution_'
'plane_'
'institution_'
'director_'
'Thank_'
'willing_'
'80_'
'ill_'
'duties_'
'obtain_'
'regulation_'
'friendly_'
'handle_'
'seriously_'
'import_'
'formal_'
'2005_'
'Public_'
'agriculture_'
'nce_'
'stood_'
'satisfaction_'
'Before_'
'corporate_'
'36_'
'welcomed_'
'sovereignty_'
'parameters_'
'radio_'
'Control_'
'destruction_'
'34_'
'unemployment_'
'War_'
'2006_'
'extended_'
'observed_'
'noise_'
'ent_'
'shared_'
'profit_'
'centre_'
'loans_'
'integrity_'
'flight_'
'proliferation_'
'layer_'
'instance_'
'winter_'
'load_'
'afraid_'
'politics_'
'trip_'
'fruit_'
'storage_'
'digital_'
'unable_'
'worry_'
'monitor_'
'secure_'
'estimates_'
'substantial_'
'manage_'
'reaction_'
'mental_'
'programs_'
'hopes_'
'notice_'
'entry_'
'Like_'
'county_'
'seeking_'
'marketing_'
'contain_'
'displaced_'
'outcome_'
'exactly_'
'et_'
'forget_'
'combination_'
'evening_'
'multiple_'
'Study_'
'danger_'
'brand_'
'heading_'
'collective_'
'expert_'
'Italy_'
'est_'
'patient_'
'wouldn_'
'recognize_'
'sh_'
'listed_'
'resolve_'
'scheme_'
'supporting_'
'driving_'
'valuable_'
'significantly_'
'mid_'
'finding_'
'hole_'
'lie_'
'tea_'
'southern_'
'equity_'
'foot_'
'imposed_'
'monetary_'
'biennium_'
'Bush_'
'minority_'
'formation_'
'tes_'
'expand_'
'perform_'
'positions_'
'greatest_'
'carefully_'
'alternative_'
'diplomatic_'
'sold_'
'emphasis_'
'guidance_'
'leaves_'
'broken_'
'treated_'
'iron_'
'filled_'
'bridge_'
'impossible_'
'requirement_'
'sit_'
'ated_'
'tests_'
'Region_'
'expenditure_'
'., _'
'Haiti_'
'consultation_'
'screen_'
'wine_'
'lived_'
'shift_'
'married_'
'involving_'
'Members_'
'plays_'
'warning_'
'Through_'
'reconstruction_'
'vision_'
'businesses_'
'Mexico_'
'extend_'
'twenty_'
'partnership_'
'GDP_'
'factory_'
'bar_'
'ck_'
'comments_'
'evaluate_'
'figures_'
'Over_'
'Methods_'
'indigenous_'
'hundred_'
'savings_'
'names_'
'mobile_'
'explain_'
'thousand_'
'struggle_'
'temporary_'
'principal_'
'W_'
'voluntary_'
'encouraged_'
'Meanwhile_'
'intergovernmental_'
'haven_'
'achieving_'
'command_'
'Would_'
'largely_'
'Or_'
'ur_'
'selected_'
'cutting_'
'faced_'
'ks_'
'minute_'
'objects_'
'consistent_'
'era_'
'sed_'
'rehabilitation_'
'occupied_'
'37_'
'pointed_'
'Last_'
'suggest_'
'minimum_'
'touch_'
'records_'
'injury_'
'allows_'
'heads_'
'UNHCR_'
'Take_'
'occurred_'
'flowers_'
'territorial_'
'judge_'
'researchers_'
'buildings_'
'ned_'
'version_'
'soul_'
'west_'
'shop_'
'star_'
'obvious_'
'partner_'
'purchase_'
'Dr_'
'smaller_'
'sat_'
'laid_'
'deeply_'
'delay_'
'centres_'
'indicate_'
'whatever_'
'Plan_'
'atmosphere_'
'mail_'
'attitude_'
'Use_'
'depth_'
'abuse_'
'combat_'
'arrived_'
'milk_'
'criteria_'
'academic_'
'bought_'
'Islamic_'
'display_'
'characteristic_'
'Commissioner_'
'UK_'
'sensitive_'
'represented_'
'mark_'
'鈥_'
'forth_'
'launched_'
'managers_'
'caught_'
'Kingdom_'
'games_'
'achievements_'
'Indian_'
'38_'
'ya_'
'participants_'
'utilization_'
'observe_'
'jurisdiction_'
'implications_'
'hurt_'
'sub_'
'selling_'
'secretariat_'
'maximum_'
'approaches_'
'invited_'
'afternoon_'
'sister_'
'feature_'
'competitive_'
'Sudan_'
'stopped_'
'mines_'
'birth_'
'fit_'
'Tom_'
'straight_'
'block_'
'bearing_'
'dress_'
'90_'
'authorized_'
'cars_'
'simulation_'
'bright_'
'Regulations_'
'arm_'
'scientists_'
'wishes_'
'K_'
'Brazil_'
'w_'
'overseas_'
'diagnosis_'
'detail_'
'happiness_'
'House_'
'networks_'
'ves_'
'consumers_'
'Hey_'
'quick_'
'Education_'
'remaining_'
'Global_'
'neither_'
'dinner_'
'burden_'
'Geneva_'
'maintaining_'
'beauty_'
'receiving_'
'residents_'
'recommendation_'
'faith_'
'Tribunal_'
'spot_'
'divided_'
'Services_'
'sir_'
'England_'
'garden_'
'nine_'
'absence_'
'strongly_'
'44_'
'composition_'
'option_'
'chain_'
'selection_'
'cooperate_'
'reviewed_'
'/ _'
'movie_'
'sets_'
'frame_'
'zing_'
'informal_'
'ist_'
'41_'
'slowly_'
'raising_'
'bill_'
'depends_'
'sexual_'
'province_'
'falling_'
'ations_'
'300_'
'sought_'
'helping_'
'bound_'
'fun_'
'Instead_'
'listen_'
'constant_'
'liquid_'
'headquarters_'
'horse_'
'Lebanon_'
'compliance_'
'perspective_'
'achievement_'
'Several_'
'options_'
'advantages_'
'investments_'
'managed_'
'stressed_'
'der_'
'Third_'
'ging_'
'ah_'
'outstanding_'
'dispute_'
'Greece_'
'commodity_'
'union_'
'finished_'
'resulted_'
'Turkey_'
'remove_'
'massive_'
'Somalia_'
'extra_'
'para_'
'limits_'
'released_'
'plate_'
'saving_'
'flows_'
'motion_'
'priorities_'
'als_'
'seat_'
'scene_'
'boss_'
'minister_'
'prove_'
'push_'
'39_'
'attached_'
'edge_'
'ial_'
'timely_'
'tions_'
'definition_'
'players_'
'helps_'
'opposition_'
'worse_'
'drawn_'
'maybe_'
'Day_'
'gap_'
'2004_'
'sight_'
'lasting_'
'input_'
'undertake_'
'package_'
'herself_'
'walked_'
'signs_'
'experienced_'
'electricity_'
'wrote_'
'topic_'
'legitimate_'
'represent_'
'confirmed_'
'oriented_'
'estimate_'
'drawing_'
'careful_'
'Co_'
'42_'
'catch_'
'thanks_'
'coffee_'
'execution_'
'rice_'
'vast_'
'kan_'
'Lord_'
'III_'
'tend_'
'maintained_'
'patterns_'
'pick_'
'measurement_'
'ratio_'
'pace_'
'Children_'
'mostly_'
'collaboration_'
'count_'
'properly_'
'languages_'
'{_'
'realized_'
'trends_'
'meat_'
'joined_'
'tourism_'
'busy_'
'strengthened_'
'linked_'
'welfare_'
'sharing_'
'counter_'
'racial_'
'fail_'
'capable_'
'represents_'
'continuous_'
'easier_'
'producing_'
'mountain_'
'treat_'
'interesting_'
'targets_'
'remote_'
'na_'
'intellectual_'
'prison_'
'meant_'
'experiences_'
'hoped_'
'Without_'
'male_'
'numerous_'
'stocks_'
'43_'
'Q_'
'conferences_'
'expenses_'
'fly_'
'begun_'
'truly_'
'\\_'
'ideal_'
'served_'
'ys_'
'Association_'
'eventually_'
'contrast_'
') (_'
'suddenly_'
'Company_'
'copy_'
'fault_'
'facts_'
'charges_'
'Monday_'
'farmers_'
'faces_'
'K'
'v_'
'cast_'
'Does_'
'via_'
'ra_'
'liability_'
'appointed_'
'clock_'
'Financial_'
'okay_'
'therapy_'
'transmission_'
'provinces_'
'thin_'
'teams_'
'performed_'
'Spanish_'
'Okay_'
'Perhaps_'
'Paris_'
'ordinary_'
'Spain_'
'ourselves_'
'taste_'
'player_'
'introduction_'
'declared_'
'suffered_'
'Province_'
'bility_'
'di_'
'vulnerable_'
'sts_'
'harm_'
'Maybe_'
'identification_'
'houses_'
'examine_'
'constitute_'
'introduce_'
'port_'
'thesis_'
'bringing_'
'kids_'
'root_'
'considering_'
'expanded_'
'east_'
'Li_'
'sessions_'
'plastic_'
'extension_'
'ure_'
'Recalling_'
'ordered_'
'Sea_'
'occur_'
'Democratic_'
'grown_'
'boys_'
'Analysis_'
'Friday_'
'sitting_'
'appearance_'
'secondary_'
'suit_'
'phenomenon_'
'dropped_'
'Greek_'
'suggests_'
'introduces_'
'grade_'
'eating_'
'sweet_'
'Parties_'
'upper_'
'recorded_'
'containing_'
'reconciliation_'
'promise_'
'" "_'
'grass_'
'White_'
'sample_'
'Ukraine_'
'pleased_'
'River_'
'estate_'
'contributed_'
'origin_'
'devices_'
'disputes_'
'overcome_'
'none_'
'platform_'
'latter_'
'ms_'
'prescribed_'
'millions_'
'earthquake_'
'server_'
'controls_'
'discovered_'
' % _'
'productivity_'
'putting_'
'owing_'
'fill_'
'difficulty_'
'calling_'
'happens_'
'fat_'
'ces_'
'enhanced_'
'Unit_'
'deployment_'
'club_'
'loan_'
'loved_'
'cease_'
'exchanges_'
'prosperity_'
'feelings_'
'amounts_'
'seeing_'
'merely_'
'Though_'
'files_'
'Report_'
'intervention_'
'images_'
'stations_'
'guys_'
'successfully_'
'expensive_'
'satellite_'
'applicable_'
'operate_'
'00_'
'square_'
'library_'
'orders_'
'identity_'
'ged_'
'Requests_'
'sharp_'
'courses_'
'Cuba_'
'bird_'
'transformation_'
'links_'
'donor_'
'alia_'
'corner_'
'aspect_'
'raw_'
'frequently_'
'representation_'
'OF_'
'broke_'
'grew_'
'Singapore_'
'Prime_'
'Chief_'
'worldwide_'
'wonder_'
'driver_'
'reflects_'
'[_'
'officer_'
'eliminate_'
'printing_'
'mechanical_'
'virus_'
'reliable_'
'asset_'
'conventional_'
'detection_'
'gross_'
'protected_'
'client_'
'defence_'
'Decade_'
'proportion_'
'productive_'
'experimental_'
'literature_'
'encouraging_'
'gun_'
'entirely_'
'documentation_'
'Add_'
'extensive_'
'closer_'
'ses_'
'cool_'
'Caribbean_'
'Act_'
'territories_'
'schedule_'
'grave_'
'Angola_'
'supposed_'
'Web_'
'characters_'
'capability_'
'dance_'
'channel_'
'accurate_'
'Street_'
'minorities_'
'chairman_'
'driven_'
'paragraphs_'
'Protection_'
'payments_'
'Life_'
'Christmas_'
'pursue_'
'onto_'
'division_'
'ard_'
'Red_'
'novel_'
'David_'
'Police_'
'song_'
'reaching_'
'previously_'
'branch_'
'typical_'
'connected_'
'Could_'
'grain_'
'ility_'
'finish_'
'classes_'
'belief_'
'legislative_'
'conservation_'
'contributing_'
'rare_'
'Technology_'
'Regional_'
'Croatia_'
'verification_'
'spoke_'
'entity_'
'2001_'
'thoughts_'
'presents_'
'named_'
'Jack_'
'distributed_'
'acting_'
'wild_'
'UNPROFOR_'
'taxes_'
'sentence_'
'explained_'
'contents_'
'smooth_'
'buying_'
'75_'
'Sunday_'
'attend_'
'600_'
'Games_'
'marine_'
'assembly_'
'sustained_'
'fifth_'
'thereby_'
'Using_'
'tonight_'
'intelligence_'
'Water_'
'Business_'
'motor_'
'la_'
'depend_'
'coordinated_'
'governance_'
'involvement_'
'religion_'
'suggestions_'
'pair_'
'Application_'
'watching_'
'newly_'
'jointly_'
'formulated_'
'twice_'
'School_'
'handling_'
'mistake_'
'examples_'
'ner_'
'studying_'
'mineral_'
'2003_'
'machinery_'
'fashion_'
'proof_'
'turning_'
'holds_'
'hearing_'
'Population_'
'snow_'
'percentage_'
'homes_'
'balanced_'
'Tuesday_'
'moon_'
'Having_'
'federal_'
'expenditures_'
'Korean_'
'brings_'
'Make_'
'transparency_'
'quantity_'
'fishing_'
'Power_'
'walking_'
'primarily_'
'category_'
'Among_'
'regulatory_'
'enhancing_'
'procurement_'
'composed_'
'circuit_'
'battle_'
'strict_'
'gate_'
'stuff_'
'bonds_'
'yield_'
'fifty_'
'telling_'
'bag_'
'restructuring_'
'relationships_'
'prospects_'
'row_'
'bone_'
'punishment_'
'participating_'
'chair_'
'Part_'
'yellow_'
'provisional_'
'household_'
'Vienna_'
'Protocol_'
'donors_'
'replace_'
'expectations_'
'preparing_'
'os_'
'repair_'
'Given_'
'silver_'
'cally_'
'Environment_'
'employed_'
'courts_'
'suffer_'
'engage_'
'church_'
'designated_'
'zones_'
'faster_'
'miles_'
'55_'
'missing_'
'sick_'
'district_'
'causing_'
'obligation_'
'slightly_'
'Unfortunately_'
'protecting_'
'concentration_'
'complicated_'
'Get_'
'commodities_'
'stands_'
'granted_'
'capabilities_'
'approximately_'
'revenue_'
'outer_'
'stronger_'
'smile_'
'guard_'
'detention_'
'pull_'
'Wang_'
'smoke_'
'des_'
'Civil_'
'guess_'
'conclusions_'
'pieces_'
'findings_'
'asking_'
'newspaper_'
'equally_'
'argument_'
'functional_'
'Vice_'
'Which_'
'Section_'
'equivalent_'
'Authority_'
'intention_'
'Fourth_'
'quiet_'
'Joint_'
'Further_'
'customs_'
'hardly_'
'corruption_'
'profits_'
'certificate_'
'victory_'
'measured_'
'marked_'
'reserve_'
'disasters_'
'expertise_'
'clients_'
'papers_'
'ban_'
'trafficking_'
'contracts_'
'refugee_'
'ges_'
'formulation_'
'Justice_'
'organizational_'
'Time_'
'flexible_'
'M'
'hundreds_'
'emphasized_'
'cation_'
'familiar_'
'ley_'
'flat_'
'participated_'
'demonstrated_'
'Indonesia_'
'understood_'
'refer_'
'ps_'
'Burundi_'
'weekend_'
'reserves_'
'committees_'
'sand_'
'Go_'
'telephone_'
'biological_'
'regarded_'
'namely_'
'ownership_'
'THE_'
'discharge_'
'ded_'
'favour_'
'ously_'
'cards_'
'exists_'
'band_'
'skill_'
'removed_'
'ler_'
'theoretical_'
'surprise_'
'1989_'
'showing_'
'candidates_'
'translation_'
'salt_'
'comment_'
'77_'
'tension_'
'audience_'
'ny_'
'Soviet_'
'programming_'
'Decides_'
'storm_'
'ore_'
'migration_'
'400_'
'stick_'
'brief_'
'prime_'
'ans_'
'Tibetan_'
'oral_'
'acute_'
'aren_'
'extreme_'
'enormous_'
'coordinate_'
'lady_'
'illicit_'
'consists_'
'tired_'
'decrease_'
'SCO_'
'ey_'
'leads_'
'dust_'
'ecological_'
'aged_'
'threats_'
'friendship_'
'fo'
'deals_'
'Results_'
'interaction_'
'reply_'
'gained_'
'Disarmament_'
'鈥'
'letters_'
'tive_'
'populations_'
'socialist_'
'ver_'
'wearing_'
'aims_'
'infection_'
'audit_'
'salary_'
'park_'
'empty_'
'unity_'
'geographical_'
'theme_'
'pursuant_'
'Miss_'
'ka_'
'exception_'
'ships_'
'calculation_'
'Bureau_'
'G'
'license_'
'football_'
'arrangement_'
'restaurant_'
'ked_'
'flying_'
'urged_'
'Industry_'
'Wednesday_'
'bn_'
'interface_'
'25'
'holiday_'
'da_'
'proceedings_'
'historic_'
'Sir_'
'statistical_'
'bigger_'
'Ko'
'sugar_'
'wonderful_'
'preventive_'
'launch_'
'Eastern_'
'roads_'
'Food_'
'ating_'
'worst_'
'survival_'
'association_'
'Jesus_'
'planet_'
'feed_'
'coverage_'
'mixed_'
'ee_'
'applying_'
'constructive_'
'automatic_'
'usual_'
'gift_'
'J_'
'rescue_'
'subjects_'
'chosen_'
'widespread_'
'offering_'
'constantly_'
'patent_'
'escape_'
'deposit_'
'birds_'
'till_'
'accuracy_'
'evolution_'
'deliver_'
': (_'
'King_'
'visited_'
'involve_'
'recession_'
'commission_'
'accused_'
'ta_'
'examined_'
'assigned_'
'subsequent_'
'ization_'
'paying_'
'Iranian_'
'AIDS_'
'alive_'
'categories_'
'northern_'
'Michael_'
'older_'
'comparison_'
'ped_'
'inner_'
'false_'
'Fifth_'
'obstacles_'
'mention_'
'painting_'
'airport_'
'title_'
'stories_'
'indicates_'
'electoral_'
'Permanent_'
'—_'
'hell_'
'cs_'
'tor_'
'cat_'
' ?_'
'terrorist_'
'destroyed_'
'Political_'
'declaration_'
'}_'
'summary_'
'globalization_'
'beat_'
'Na'
'Wall_'
'boost_'
'shut_'
'T'
'bly_'
'P'
'collapse_'
'inform_'
'sheet_'
'advertising_'
'Mary_'
'lots_'
'gains_'
'publication_'
'non'
'affecting_'
'recommend_'
'radiation_'
'Countries_'
'ish_'
'drinking_'
'crowd_'
'convinced_'
'writer_'
'contrary_'
'elsewhere_'
'assess_'
'evil_'
'civilians_'
'cable_'
'See_'
'pure_'
'derived_'
'fees_'
'eastern_'
'preventing_'
'ory_'
'apart_'
'marks_'
'confident_'
'strange_'
'acceptance_'
'ends_'
'mankind_'
'electrical_'
'generate_'
'refused_'
'pleasure_'
'replaced_'
'incident_'
'Sustainable_'
'covering_'
'formula_'
'forever_'
'summit_'
'continent_'
'stars_'
'euro_'
'withdrawal_'
'urge_'
'organize_'
'Still_'
'Science_'
'specifically_'
'sy_'
'exploitation_'
'generated_'
'coat_'
'sum_'
'shoes_'
'attempts_'
'deficit_'
'%._'
'runs_'
'web_'
'owner_'
'presidential_'
'52_'
'farm_'
'economics_'
'turns_'
'unto_'
'fallen_'
'agents_'
'earnings_'
'genetic_'
'emissions_'
'passing_'
'normally_'
'thinks_'
'functioning_'
'steady_'
'lessons_'
'interview_'
'default_'
'aggression_'
'revolution_'
'zero_'
'everybody_'
'E'
'charged_'
'addressing_'
'expanding_'
'tough_'
'appreciate_'
'Community_'
'bid_'
'lending_'
'describe_'
'Thursday_'
', '_'
'George_'
'assume_'
'surgery_'
'miss_'
'teach_'
'scheduled_'
'Nevertheless_'
'governing_'
'acceptable_'
'Should_'
'movements_'
'logic_'
'stream_'
'rational_'
'opposite_'
'meal_'
'exploration_'
'organic_'
'sounds_'
'creative_'
'pan_'
'restore_'
'ium_'
'wisdom_'
'camera_'
'Covenant_'
'Energy_'
'strike_'
'powder_'
'lity_'
'ming_'
'X'
'regularly_'
'societies_'
'honour_'
'fiber_'
'Center_'
'sudden_'
'blow_'
'prefer_'
'opinions_'
'universities_'
'permit_'
'dy_'
'likes_'
'humanity_'
'thick_'
'innovative_'
'Ireland_'
'diversity_'
'tears_'
'select_'
'pictures_'
'observation_'
'65_'
'conversation_'
'joy_'
'giant_'
'IV_'
'waters_'
'venture_'
'lly_'
'Standing_'
'angle_'
'allowing_'
'journey_'
'favorite_'
'restrictions_'
'valid_'
'pipe_'
'ngs_'
'initiated_'
'comfortable_'
'dependent_'
'everywhere_'
'53_'
'imports_'
'clothing_'
'ne'
'invest_'
'hardware_'
'cuts_'
'falls_'
'Palestine_'
'revealed_'
'heavily_'
'ving_'
'sad_'
'puts_'
'tradition_'
'monthly_'
'laser_'
'Headquarters_'
'wheel_'
'totally_'
'stages_'
'conclude_'
'criticism_'
'acquisition_'
'attended_'
'Right_'
'cup_'
'appointment_'
'IMF_'
'ff_'
'ninth_'
'angry_'
'succeed_'
'Provision_'
'&_'
'WHO_'
'define_'
'completion_'
'indicators_'
'cooperative_'
'Sometimes_'
'wise_'
'rooms_'
'flexibility_'
'directed_'
'arrested_'
' — _'
'adding_'
'occupation_'
'Support_'
'begins_'
'magnetic_'
'funded_'
'explanation_'
'strictly_'
'devoted_'
'resolved_'
'solar_'
'terrible_'
'56_'
'1998_'
'wing_'
'yes_'
'controlling_'
'pool_'
'measuring_'
'arbitration_'
'analyze_'
'sovereign_'
'nts_'
'logical_'
'ending_'
'teeth_'
'shareholders_'
'protein_'
'allocation_'
' ; _'
'flower_'
'feels_'
'entities_'
'Territories_'
'website_'
'separation_'
'discipline_'
'dreams_'
'column_'
'res_'
'violent_'
'lift_'
'imagine_'
'publications_'
'domain_'
'afford_'
'I'
'Design_'
'ay_'
'wire_'
'trained_'
'computers_'
'route_'
'ocean_'
'experiments_'
'involves_'
'victim_'
'Thanks_'
'Policy_'
'54_'
'thy_'
'substance_'
'2010_'
'qualified_'
'availability_'
'ious_'
'dealt_'
'uh_'
'format_'
'enjoyed_'
'Zealand_'
'Meeting_'
'switch_'
'commissions_'
'demonstrate_'
'tons_'
'shock_'
'candidate_'
'machines_'
'tone_'
'Bill_'
'tube_'
'thirty_'
'makers_'
'blind_'
'tissue_'
'talent_'
'Love_'
'description_'
'Noting_'
'streets_'
'commerce_'
'ot_'
'forum_'
'transferred_'
'contacts_'
'IAEA_'
'Argentina_'
'behaviour_'
'meter_'
'leg_'
'transaction_'
'losing_'
'jump_'
'absolute_'
'fee_'
'logy_'
'eighth_'
'convention_'
'Lo'
'diet_'
'treaties_'
'ely_'
'answered_'
'installation_'
'disabled_'
'tested_'
'serving_'
'subregional_'
'citizen_'
'realization_'
'pulled_'
'impose_'
'delivered_'
'Note_'
'tobacco_'
'visual_'
'philosophy_'
'borders_'
'ber'
'throw_'
'Fed_'
's'
'valve_'
'Liberia_'
'lying_'
'killing_'
'Muslim_'
'thermal_'
'considers_'
'bond_'
'signing_'
'integral_'
'que_'
'politicians_'
'anniversary_'
'returns_'
', ' _'
'interference_'
'waves_'
'Cambodia_'
'systematic_'
'discusses_'
'rely_'
'Le'
'ride_'
'operative_'
'constraints_'
'cheap_'
'welcomes_'
'nose_'
'judges_'
'tight_'
'wake_'
'concepts_'
'penalty_'
'kitchen_'
'channels_'
'neck_'
'fellow_'
'regret_'
'profound_'
'managing_'
'Criminal_'
'possibly_'
'adjust_'
'wet_'
'tall_'
'colleagues_'
'lock_'
'troop_'
'symbol_'
'degrees_'
'socio_'
'calculated_'
'wider_'
'B'
'wished_'
'pump_'
'declined_'
'D'
'moves_'
'reproductive_'
'ters_'
'obviously_'
'elderly_'
'glad_'
'equitable_'
'allocated_'
'roll_'
'ures_'
'Letter_'
'walls_'
'linear_'
'struck_'
'drew_'
'ries_'
'ease_'
'ear_'
'mandates_'
'Governing_'
'voters_'
'Training_'
'helpful_'
'reputation_'
'witness_'
'Space_'
'regards_'
'grant_'
'lights_'
'excessive_'
'ceremony_'
'periods_'
'shopping_'
'ought_'
'courage_'
'Z'
'Ministers_'
'ite_'
'Besides_'
'genuine_'
'Nuclear_'
'Technical_'
'proud_'
'wedding_'
'constitutional_'
'Self_'
'ence_'
'budgetary_'
'innocent_'
'density_'
'，_'
'promoted_'
'voltage_'
'hate_'
'birthday_'
'occasion_'
'Island_'
'refers_'
'destroy_'
'Rules_'
'ha_'
'humans_'
'Georgia_'
'convenient_'
'automatically_'
'advisory_'
'Coordination_'
'promised_'
'height_'
'Italian_'
'sponsors_'
'owners_'
'Olympics_'
'wages_'
'occurs_'
'mood_'
'constitutes_'
'vice_'
'ultimate_'
'headed_'
'legs_'
'broader_'
'shoulder_'
'bottle_'
'Project_'
'voting_'
'lesson_'
'roof_'
'Ka'
'Saturday_'
'Following_'
'filter_'
'Ambassador_'
'V'
'string_'
'architecture_'
'gs_'
'ages_'
'Taking_'
'camp_'
'parallel_'
'forming_'
'eurozone_'
'tiny_'
'800_'
'cry_'
'talked_'
'psychological_'
'roles_'
'spare_'
'invention_'
'uniform_'
'smoking_'
'Five_'
'California_'
'blame_'
'honest_'
'circle_'
'UNFPA_'
'Thailand_'
'messages_'
'wage_'
'invitation_'
'burning_'
'luck_'
'desk_'
'unlikely_'
'alcohol_'
'Tu'
'comply_'
'lawyer_'
'ied_'
'fiftieth_'
'accompanied_'
'colour_'
'worried_'
'narrow_'
'Whether_'
'improvements_'
'collect_'
'calm_'
'taught_'
'intensive_'
'hat_'
'ut_'
'watched_'
'worker_'
'transactions_'
'keeps_'
'preliminary_'
'seats_'
'analyses_'
'precision_'
'700_'
'necessarily_'
'OK_'
'gene_'
'Air_'
'silence_'
'Nothing_'
'aside_'
'sion_'
'flood_'
'e'
'secretary_'
'recommends_'
'elimination_'
'58_'
'judgment_'
'cleaning_'
'firmly_'
'Code_'
'missile_'
'starts_'
'speaker_'
'64_'
'dignity_'
'cream_'
'ingly_'
'anger_'
'UNCTAD_'
'CI'
'plus_'
'mistakes_'
'saved_'
'57_'
'boundary_'
'arrest_'
'modernization_'
'professor_'
'virtual_'
'prisoners_'
'exposure_'
'Gaza_'
'fore'
'absolutely_'
'thou_'
'Secondly_'
'ticket_'
'satisfied_'
'Army_'
'doctors_'
'mortgage_'
'civilization_'
'bread_'
'. '_'
'roots_'
'picked_'
'optical_'
'warned_'
'describes_'
'somewhat_'
'U'
'settlements_'
'safeguard_'
'emerged_'
'ier_'
'acquired_'
'ster_'
'presentation_'
'injection_'
'railway_'
'personality_'
'. . . _'
'surprised_'
'parameter_'
'mix_'
'threatened_'
'remarkable_'
'dimension_'
'ray_'
'ger_'
'characterized_'
'assessed_'
'clearance_'
'plenary_'
'breaking_'
'amp_'
'replied_'
'directors_'
'spite_'
'illness_'
'honor_'
'ker_'
'smell_'
'mortality_'
'attract_'
'ori'
'beneficial_'
'Everyone_'
'2002_'
'negotiation_'
'essence_'
'configuration_'
'diplomacy_'
'coast_'
'apparent_'
'About_'
'ultimately_'
'ca_'
'Accordingly_'
'Al_'
'variable_'
'vessels_'
'smart_'
'necessity_'
'ized_'
'deployed_'
'Legal_'
'handed_'
'Google_'
'2009_'
'finds_'
'covers_'
'arrive_'
'he'
'HIV_'
'crops_'
'button_'
'Assistance_'
'Un'
'solidarity_'
'shaped_'
'applies_'
'SA'
'suggestion_'
'binding_'
'restricted_'
'economists_'
'Review_'
'ain_'
'compound_'
'? "_'
'tells_'
'sport_'
'Military_'
'Keep_'
'typically_'
'on'
'66_'
'collected_'
'prospect_'
'College_'
'consent_'
'L'
'partly_'
'norms_'
'retail_'
'internet_'
'strain_'
'observations_'
'liver_'
'Reserve_'
'realistic_'
'pilot_'
'landscape_'
'fluid_'
'Method_'
'Long_'
'repeated_'
'Within_'
'branches_'
'ably_'
'adult_'
'preparations_'
'contemporary_'
'tech_'
'settled_'
'nationality_'
'fulfil_'
'unknown_'
'surplus_'
'modified_'
'god_'
'brown_'
'grounds_'
'excess_'
'dissemination_'
'shirt_'
'fails_'
'recall_'
'harmony_'
'tendency_'
'med_'
'uncertainty_'
'breast_'
'breath_'
'WTO_'
'Syria_'
'Small_'
'solving_'
'fears_'
', “_'
' $ _'
'vocational_'
'manufacture_'
'hall_'
'dear_'
'dad_'
'seed_'
'Similarly_'
'somebody_'
'static_'
'rejected_'
'peak_'
'damaged_'
'"(_'
'facility_'
'W'
'Su'
'hi_'
'coastal_'
'profile_'
'maritime_'
'stipulated_'
'pursued_'
'mountains_'
'lunch_'
'pages_'
'ered_'
'Treasury_'
'Y'
'exposed_'
'Paul_'
'coordinates_'
'sending_'
'ide_'
'fairly_'
'attractive_'
'Man_'
'Cultural_'
'transparent_'
'magazine_'
'entering_'
'in'
'lake_'
'observer_'
'Prevention_'
'ex_'
'submission_'
'wheat_'
'samples_'
'Ra'
'winning_'
'ft_'
'arising_'
'proceed_'
'$ _'
'rent_'
'gear_'
'endorsed_'
'arranged_'
'survive_'
'shadow_'
'print_'
'Give_'
'fate_'
'cotton_'
'prohibited_'
'favor_'
'Humanitarian_'
'Tell_'
'competence_'
'ol_'
'chicken_'
'Q'
'Kuwait_'
'thereof_'
'emotional_'
'deaths_'
'unprecedented_'
'register_'
'panel_'
'tank_'
'preparatory_'
'murder_'
'Four_'
'1988_'
'underlying_'
'Labour_'
'hip_'
'Inter_'
'AND_'
'stem_'
'installed_'
'complexity_'
'analysts_'
'Next_'
'rd_'
'micro_'
'fewer_'
'disposal_'
'Customs_'
'argue_'
'eggs_'
'Work_'
'kin_'
'forecast_'
'claimed_'
'%, _'
'municipalities_'
'tolerance_'
'Peter_'
'forests_'
'adverse_'
'paint_'
'ka'
'marry_'
'Bosnian_'
'.'
'visitors_'
'reliability_'
'laboratory_'
'RO'
'OAU_'
'surrounding_'
'noticed_'
'foods_'
'propose_'
'San_'
'tie_'
'surely_'
'sequence_'
'dly_'
'61_'
'momentum_'
'listening_'
'ky_'
'internationally_'
'harmonious_'
'chronic_'
'adapt_'
'topics_'
'incidents_'
'He'
'guarantees_'
'capacities_'
'induced_'
'sized_'
'compare_'
'cloth_'
'encourages_'
'Local_'
'minor_'
'visible_'
'signals_'
'intensity_'
'900_'
'il_'
'fired_'
'tly_'
'ily_'
'generations_'
'affects_'
'Turkish_'
'Apple_'
'instructions_'
'A'
'windows_'
'uni'
'dogs_'
'hide_'
'portion_'
'copper_'
'tape_'
'determining_'
'replacement_'
'plenty_'
'answers_'
'budgets_'
'satisfactory_'
'artificial_'
'Remember_'
'coordinating_'
'solved_'
'f'
'Measures_'
'Implementation_'
'whenever_'
'preserve_'
'theories_'
'resident_'
'settle_'
'mer_'
'designing_'
'beings_'
'R'
'spiritual_'
'hill_'
'cure_'
'chemicals_'
'hidden_'
'imported_'
'belt_'
'..._'
'ham_'
'63_'
'pursuit_'
'spokesman_'
'drought_'
'cloud_'
'Supreme_'
'sections_'
'ow_'
'Saudi_'
'iness_'
'ng'
'households_'
'commit_'
'68_'
'crises_'
'85_'
'furniture_'
'assumed_'
'accelerate_'
'workshop_'
'com_'
'\u_'
'tu'
'Never_'
'emphasize_'
'refuse_'
' -_'
'm'
'Macao_'
'Forum_'
'AC_'
'comfort_'
'assessments_'
'click_'
'subsidies_'
'undertaking_'
'sees_'
'reverse_'
'peacekeeping_'
'unified_'
't'
'produces_'
'employee_'
'visits_'
'symptoms_'
'freely_'
'considerations_'
'kid_'
'62_'
'wa'
'confirm_'
'burn_'
'Preparatory_'
'Open_'
'out'
'Bur'
'wash_'
'Shi'
'actors_'
'tour_'
'exceed_'
'under'
'Nigeria_'
'ini_'
'guests_'
'films_'
'Smith_'
'Ri'
'Palestinians_'
'superior_'
'subsidiary_'
'IT_'
'spoken_'
'water'
'optimal_'
'150_'
'towns_'
'Territory_'
'stores_'
'happening_'
'deposits_'
'nobody_'
'tail_'
'removal_'
'viewed_'
'anywhere_'
'tables_'
'methodology_'
'oxygen_'
'feasible_'
'95_'
'dimensional_'
'choices_'
'Park_'
'founded_'
'definitely_'
'performing_'
'lucky_'
'defend_'
'split_'
'O'
'Model_'
'shell_'
'satisfy_'
'vessel_'
'Construction_'
'ye_'
'optimization_'
'mere_'
'67_'
'UNITA_'
'harder_'
'conducting_'
'periodic_'
'younger_'
'Lu'
'substances_'
'rubber_'
'In'
'curve_'
'Environmental_'
'municipal_'
'equation_'
'classification_'
'certificates_'
'ruling_'
'pushed_'
'59_'
'nes_'
'compromise_'
'commonly_'
'accordingly_'
'resume_'
'egg_'
'lands_'
'injured_'
'Northern_'
'72_'
'Ltd_'
'ink_'
'rough_'
'belong_'
'arrival_'
', '
'circulation_'
'utility_'
'deliberations_'
'continuously_'
'San'
'focusing_'
'depression_'
'Poland_'
'fix_'
'relate_'
'childhood_'
'beam_'
'seminars_'
'c'
'arts_'
'Christ_'
'closing_'
'stake_'
'intense_'
'fans_'
'ati'
'ang_'
'frequent_'
'Data_'
'formulate_'
'cultures_'
'" , _'
'Mother_'
'vibration_'
'provincial_'
'barriers_'
'em_'
'multi'
'dying_'
'Jerusalem_'
'hang_'
'badly_'
'$_'
'knife_'
'hoc_'
'alleged_'
'ter'
'pe_'
'League_'
'ke'
'golden_'
'Tokyo_'
'gathered_'
'Dar'
'torture_'
'signature_'
'passengers_'
'guaranteed_'
'conformity_'
'capita_'
'rolling_'
'inclusion_'
'Islands_'
'x'
'regardless_'
'consciousness_'
'authors_'
'. '
'interim_'
'inevitable_'
'un_'
'mom_'
'w'
'enabling_'
'colors_'
'1990s_'
'silent_'
'reflection_'
'basically_'
'locked_'
'complaints_'
'Cyprus_'
'photo_'
'N'
'transit_'
'chest_'
'custom_'
'feasibility_'
'underground_'
'unusual_'
'investigations_'
'financed_'
'Ja'
'CSCE_'
'" '
'hyper'
'captain_'
'HA'
'matrix_'
'Clinton_'
'habit_'
'visiting_'
'LORD_'
'Ki'
'treating_'
'Being_'
'tongue_'
'carrier_'
'autonomy_'
'MO'
'suppliers_'
'magic_'
'heaven_'
'briefly_'
'rid_'
'producers_'
'heating_'
'permission_'
'opposed_'
'锛_'
'onal_'
'ear'
'destination_'
'> <_'
'lawyers_'
'yours_'
'FAO_'
'RI'
'1999_'
'cing_'
'auto_'
'advancement_'
'guilty_'
'dramatic_'
'Sweden_'
'the'
'pro'
'particles_'
'native_'
'crop_'
'spectrum_'
'evident_'
'accountability_'
'1980_'
' / _'
'errors_'
'stomach_'
'semi_'
'pension_'
'denied_'
'Moscow_'
'liked_'
'Prince_'
'wanna_'
'AS'
'constitution_'
'si_'
'feedback_'
'El_'
'Black_'
'adults_'
' ? _'
'lowest_'
'cake_'
'score_'
'repeatedly_'
'super_'
'han_'
'Southern_'
'Mar'
'ise_'
'belongs_'
'pot_'
'somewhere_'
'mouse_'
'shouldn_'
'composite_'
'nu'
'creates_'
'Trust_'
'Sun_'
'Netherlands_'
'mutually_'
'parent_'
'Communist_'
'inadequate_'
'duration_'
'expense_'
'camps_'
'Resources_'
'shipping_'
'shed_'
'responses_'
'73_'
'negotiating_'
'crystal_'
'Scientific_'
'n'
'Subcommittee_'
'Che'
'sphere_'
'ero'
'competitiveness_'
'exact_'
'communicate_'
'relates_'
'schemes_'
'beach_'
'crazy_'
'incentives_'
'freedoms_'
'Green_'
'adjusted_'
'villages_'
'impression_'
'Microsoft_'
'potentially_'
'exercises_'
'yeah_'
'assisted_'
'admit_'
'Brown_'
'routine_'
'mainland_'
'reviews_'
'SI'
'ears_'
'debts_'
'correlation_'
'bs_'
'vegetables_'
'truck_'
'inventory_'
'flag_'
'assisting_'
'vertical_'
'cope_'
'AT'
'invite_'
'immune_'
'highway_'
',  _'
'crack_'
'warming_'
'representing_'
'repatriation_'
'consolidation_'
'Put_'
'Au'
'sensor_'
'nutrition_'
'Parliament_'
'Dynasty_'
'conventions_'
'feeding_'
'array_'
'shelter_'
'da'
'Ta'
'targeted_'
'racism_'
'willingness_'
'stored_'
'speakers_'
'locations_'
'Australian_'
'seconds_'
'Mo'
'equipped_'
'  '
'nearby_'
'accidents_'
'Zhang_'
'transform_'
'ically_'
'ets_'
'RA'
'hoping_'
'adopting_'
'exclusive_'
'en'
'toxic_'
'Norway_'
'knowing_'
'Observer_'
'LO'
'Industrial_'
'UNOSOM_'
'exit_'
'essentially_'
'NGOs_'
'En'
'yard_'
'margin_'
'S'
'lets_'
'concentrated_'
'breakfast_'
'imprisonment_'
'An'
'suspect_'
'loose_'
'sleeping_'
'IN'
'Bra'
'''
'mirror_'
'corn_'
'ki'
'Malaysia_'
'Harry_'
'transfers_'
'restoration_'
'pur'
'desert_'
'consequence_'
'lt_'
'stic_'
'sixth_'
'renewed_'
'J'
'permitted_'
'leaf_'
'ering_'
'credibility_'
'apartment_'
'extraordinary_'
'Calls_'
'email_'
'contingent_'
'brothers_'
'beer_'
'vely_'
'intelligent_'
'distinct_'
'update_'
'ja'
'diverse_'
'tender_'
'newspapers_'
'meaningful_'
'backed_'
'hood_'
'fan_'
'plain_'
'respected_'
'log_'
'Per'
'virtually_'
'cap_'
'Da'
'award_'
'journalists_'
'serves_'
'applicant_'
'supplier_'
'le'
'71_'
'singing_'
'precise_'
'graduate_'
'allowance_'
'earn_'
'PC'
'AR'
'SE'
'logistics_'
'lin_'
'Republican_'
'fabric_'
'conversion_'
'embargo_'
'tragedy_'
'hand'
'initially_'
'Atlantic_'
'sole_'
'i'
'everyday_'
'NATO_'
'separately_'
'originally_'
'numerical_'
'muscle_'
'jo'
'guest_'
'brush_'
'manual_'
'31'
'precisely_'
'dimensions_'
'den_'
'transmitted_'
'sta'
'Jordan_'
'outlined_'
'Christian_'
'rarely_'
'doors_'
'30'
'of'
'simultaneously_'
']/ _'
'ists_'
'UNESCO_'
'naturally_'
'existed_'
'b'
'RE'
'ward_'
'ta'
'per'
'clouds_'
'tensions_'
'roughly_'
'ology_'
'meets_'
'LE'
'stroke_'
'partial_'
'residence_'
'campus_'
'Child_'
'seal_'
'ministers_'
'Professor_'
'preferred_'
'gotta_'
'eradication_'
'chart_'
'premises_'
'disk_'
'" (_'
'76_'
'sincere_'
'workshops_'
'preceding_'
'finger_'
'Finance_'
'accomplished_'
'demonstration_'
'Organisation_'
'Syrian_'
'sharply_'
'recalled_'
'fortune_'
'Yu'
'Austria_'
'universe_'
'guns_'
'acquire_'
'Henry_'
'surveillance_'
'mor'
'sti'
'operator_'
'che'
'appeals_'
'Cor'
'instruction_'
'instability_'
'swimming_'
'dual_'
'defeat_'
'Much_'
'ral_'
'quantitative_'
'departure_'
'Operations_'
'120_'
'responded_'
'neighbouring_'
'entrusted_'
'sur'
'resistant_'
'tan'
'steam_'
'ics_'
'stuck_'
'considerably_'
'vacation_'
'resumed_'
'precious_'
'seized_'
'Land_'
'wars_'
'Investment_'
'possibilities_'
'inter'
'abandoned_'
'Putin_'
'Pu'
' -  _'
'enabled_'
'investor_'
'borne_'
'. . ._'
'rocks_'
'admitted_'
'Men_'
'organizing_'
'Mozambique_'
'Serbia_'
'AN'
'guided_'
'dedicated_'
'corporations_'
'announcement_'
'UNDCP_'
'sil'
'sentenced_'
'passage_'
'economically_'
'Chen_'
'juice_'
'fracture_'
'exam_'
'copies_'
'el'
'annually_'
'PA'
'Fe'
'missed_'
'er'
'dirty_'
'wound_'
'foster_'
'and'
'receipt_'
'sake_'
'hospitals_'
'designs_'
'arise_'
'Society_'
'鈥檚_'
'deserve_'
'analyzes_'
'Family_'
'Myanmar_'
'envisaged_'
'copyright_'
'lists_'
'fy_'
'ing'
'hasn_'
'apparently_'
'Robert_'
'dressed_'
'carries_'
'argued_'
'SC'
'entrance_'
'limitation_'
'adds_'
'Network_'
'е'
'Cho'
'orientation_'
'discovery_'
'Al'
'cement_'
'County_'
'23'
'tremendous_'
'ssi'
'votes_'
'shan_'
'returning_'
'detect_'
'allegations_'
'Bo'
'seeds_'
'rush_'
'oo'
'Rio_'
'untuk_'
'cargo_'
'soldier_'
'pressing_'
'epidemic_'
'al'
'Recognizing_'
'immigration_'
'Main_'
'Ex'
'mixture_'
'minds_'
'Whatever_'
'offset_'
'Very_'
'funny_'
'segment_'
'focuses_'
'degradation_'
'velocity_'
'reservations_'
'negara_'
'invested_'
'correctly_'
'Cairo_'
'acknowledged_'
'La'
'conducive_'
'Pa'
'Philippines_'
'pocket_'
'consistently_'
'coach_'
'perfectly_'
'od_'
'extraction_'
'suspended_'
'Listen_'
'Lee_'
'5'
'fingers_'
'Re'
'mobilization_'
'operators_'
'executed_'
'burst_'
'bacteria_'
'Administrator_'
'stimulus_'
'random_'
'holes_'
'Road_'
'Ju'
'imperative_'
'specify_'
'songs_'
'Studies_'
'NG_'
'Cross_'
'tower_'
'requiring_'
'up'
'thee_'
'chose_'
'indispensable_'
'ii_'
'validity_'
'executives_'
'aggressive_'
'actor_'
'H'
'seventh_'
'harmful_'
'handled_'
'Try_'
'Natural_'
'mature_'
'chip_'
'CT_'
'severely_'
'nursing_'
'foreigners_'
'ag'
'subsequently_'
'CE'
'lovely_'
'concentrate_'
'aging_'
'Professional_'
'ir_'
'So'
'mad_'
'compete_'
'classroom_'
'Uganda_'
'preservation_'
'advances_'
'leather_'
'Afghan_'
'subprogramme_'
'influenced_'
'Old_'
'99_'
'module_'
'stayed_'
'occasions_'
'ang'
'Mac'
'Drug_'
'synthesis_'
'deemed_'
'modest_'
'substantially_'
'protocol_'
'decides_'
'apartheid_'
'presidency_'
'boom_'
'ba_'
'Cu'
'74_'
'  - _'
'purchasing_'
'heritage_'
'suspension_'
'liquidity_'
'integrate_'
'Staff_'
'Gulf_'
'reveal_'
'Planning_'
'maker_'
'Developing_'
'tumor_'
'focal_'
'decisive_'
'chances_'
'UNAMIR_'
'69_'
'recording_'
'identifying_'
'fication_'
'withdraw_'
'revenues_'
'Ar'
'for'
'Serb_'
'subjected_'
'sheep_'
'printed_'
'weakness_'
'insufficient_'
'depending_'
'enthusiasm_'
'deeper_'
'Portugal_'
'ze'
'shortage_'
'pride_'
'artist_'
'Sea'
'shoot_'
'usage_'
'pre'
'SO'
'resort_'
'hearts_'
'Roman_'
'recover_'
'd'
'193'
'sponsored_'
'nervous_'
'ul_'
'kilometres_'
'Inc_'
'Ha'
'Wi'
'ians_'
'recruitment_'
'desired_'
'approve_'
'Until_'
'Man'
'united_'
'remarks_'
'mar'
'ght_'
'remind_'
'zhou_'
'j_'
'hire_'
'ates_'
'tip_'
'93_'
'tur'
'sons_'
'distinction_'
'Guinea_'
'analyzing_'
'Exchange_'
'24'
'bubble_'
'abide_'
'passenger_'
'emergencies_'
'graphy_'
'Father_'
'ents_'
'comparative_'
'pose_'
'promising_'
'Building_'
'AD'
'silk_'
'painful_'
'luxury_'
'apple_'
'fragile_'
'Vi'
'Platform_'
'thorough_'
'stupid_'
'transnational_'
'suppose_'
'islands_'
' [ _'
'ities_'
'capture_'
'No'
'hungry_'
'Sta'
'tries_'
'ser'
'alarm_'
'sha'
'repeat_'
'autumn_'
'DNA_'
'29'
'promptly_'
'districts_'
'Z_'
'Har'
'bases_'
'work'
'nerve_'
'cha'
'Standard_'
'м'
'mis'
'Medical_'
'nationals_'
'cooking_'
'safeguards_'
'navigation_'
'shooting_'
'pillar_'
'grateful_'
'centuries_'
'incorporated_'
'associations_'
'py_'
'soup_'
'pursuing_'
'generating_'
'Gu'
'AC'
'ignore_'
'favourable_'
'container_'
'Li'
'Has_'
'tics_'
'reflecting_'
'radical_'
'craft_'
'Liu_'
'updated_'
'telecommunications_'
'Master_'
'promises_'
'delays_'
'attracted_'
'F'
'1987_'
'delayed_'
'tis_'
'retirement_'
'hunger_'
'macroeconomic_'
'drove_'
'casting_'
'Was_'
'IS'
'pro_'
'ele'
'threw_'
'grand_'
'diversification_'
'constructed_'
'Gi'
'retain_'
'loves_'
'28'
'tropical_'
'hero_'
'darkness_'
'crash_'
'Rome_'
'ya'
'hor'
'anticipated_'
'Uruguay_'
'pressures_'
'ki_'
'graphic_'
'gathering_'
': “_'
'tourist_'
'chemistry_'
'Pro'
'CT'
'decreased_'
'vary_'
'directions_'
'tooth_'
'arguments_'
'manufacturers_'
'CH'
'AL'
'fuzzy_'
'consolidated_'
'Si'
'je'
'ize_'
'meters_'
'aviation_'
'Gar'
'reaffirmed_'
'Discrimination_'
'tends_'
'separated_'
'pushing_'
'tra'
'fla'
'enemies_'
'Mark_'
'Crime_'
' )_'
'excuse_'
'lips_'
'coating_'
'bio'
'absorption_'
'Ti'
'sensitivity_'
'assure_'
'Sha'
'loud_'
'ku'
'displacement_'
'a'
'genocide_'
'fying_'
'fruits_'
'politically_'
'k'
'jet_'
'Operation_'
'mathematical_'
'earned_'
'Unless_'
'mothers_'
'facilitating_'
'convened_'
'pricing_'
'alloy_'
'administering_'
'tied_'
'prominent_'
'photos_'
'isolated_'
'consolidate_'
'phones_'
'om_'
'Morgan_'
'Jim_'
'1985_'
'Experts_'
'efficacy_'
'bills_'
'zi'
'ens_'
'trace_'
'outlook_'
'bitter_'
'Students_'
'Serbs_'
'acted_'
'40'
'th'
'punished_'
'ible_'
'summarized_'
'jumped_'
'shore_'
'oh_'
'classical_'
'Switzerland_'
'lend_'
'р'
'poly'
'fed_'
'Monetary_'
'threaten_'
'glasses_'
'trans'
'seminar_'
'compulsory_'
' ' _'
'injuries_'
'habits_'
'checked_'
'Foundation_'
'introducing_'
'checking_'
'analysed_'
'verify_'
'moderate_'
'hydraulic_'
'unions_'
'ong_'
'dar'
'hydro'
'Yang_'
'TI'
'welding_'
'vol'
'membrane_'
'WA'
'IT'
'rats_'
'Mor'
'p'
'laugh_'
'Basic_'
'izing_'
'anyway_'
'posed_'
'migrant_'
'Between_'
'stones_'
'mobilize_'
'menu_'
'anti'
'Hello_'
'prompt_'
'oneself_'
'ly'
'gratitude_'
'employers_'
'bomb_'
'physics_'
'dominant_'
'Principles_'
'thread_'
'filed_'
'displayed_'
'Colombia_'
'trademark_'
'reservoir_'
'assured_'
'viable_'
'DI'
'strive_'
'Tra'
'Ru'
'whereas_'
'Little_'
'thoroughly_'
'literary_'
'PI'
'Deputy_'
'possess_'
'passion_'
'lu'
'ji'
'chocolate_'
'DA'
'78_'
'sub'
'magnitude_'
'ko'
'economist_'
' &_'
'xi'
'qualities_'
'movies_'
'crude_'
'bears_'
'curriculum_'
'mice_'
'emergence_'
'discover_'
'Change_'
'objection_'
'drinks_'
'reinforced_'
'efficiently_'
'Se'
'cooling_'
'ber_'
'Sichuan_'
'lamp_'
'analytical_'
'Er'
'Chile_'
'molecular_'
'forgotten_'
'worthy_'
'ga_'
'Big_'
'‘_'
'holder_'
'centers_'
'News_'
'Dan'
'car'
'secrets_'
'packing_'
'arrange_'
'Field_'
'94_'
'syndrome_'
'pounds_'
'crew_'
'Canadian_'
'lo'
'oon_'
'encountered_'
'Ocean_'
'washing_'
'za_'
'drafting_'
'arbitrary_'
'Oil_'
'referendum_'
'horizontal_'
'Arabia_'
'sla'
'grid_'
'dates_'
'Mediterranean_'
'Test_'
'terror_'
'declare_'
'27'
'excited_'
'Others_'
'tin_'
'protective_'
'terminal_'
'ple'
'honey_'
'battery_'
'ade_'
'Denmark_'
'ue_'
'shipment_'
'relatives_'
'incomes_'
'creditors_'
'blocks_'
'accurately_'
'To'
'Free_'
'perceived_'
'Area_'
'flights_'
'amazing_'
'Vietnam_'
'tracking_'
'interior_'
'anybody_'
'Six_'
'sin_'
'concert_'
'anymore_'
'tin'
'pending_'
'pa_'
'exciting_'
'demo'
'Movement_'
'IC'
'prize_'
'demographic_'
'Times_'
'praise_'
'failing_'
'construct_'
'Panel_'
'Currently_'
'idi'
'generous_'
'DC_'
'independently_'
'imagination_'
'classic_'
'pregnant_'
'tom'
'currencies_'
'cook_'
'Kenya_'
'surveys_'
'qualifications_'
'hanging_'
'gravity_'
'farmer_'
'dynamics_'
'Later_'
'Consequently_'
'12'
'variation_'
'urges_'
'tunnel_'
'accomplish_'
'1986_'
'ts'
'adjustments_'
'Products_'
'91_'
'tragic_'
'dozen_'
'bell_'
'Ze'
'threshold_'
'ders_'
'HO'
'divorce_'
'borrow_'
'ane_'
'TA'
'sa'
'professionals_'
'FI'
'District_'
'ware_'
'reward_'
'els_'
'79_'
'lonely_'
'rating_'
'keen_'
'appraisal_'
'predict_'
'micro'
'steadily_'
'connect_'
'”._'
'te'
'discount_'
'ass_'
'Refugees_'
'tickets_'
'threatening_'
'concerted_'
'Jo'
'undermine_'
'qua'
'lifting_'
'accounted_'
'attempted_'
'St_'
'CR'
'88_'
'vacuum_'
'liberalization_'
'distant_'
'ement_'
'artistic_'
'Actually_'
'250_'
'1980s_'
'. " _'
'stepped_'
'prevented_'
'persistent_'
'witnessed_'
'salaries_'
'cluster_'
'assignment_'
'None_'
'sanitation_'
'Ku'
'disorder_'
'Round_'
'Quality_'
'lung_'
'brilliant_'
'Nan'
'Hi'
'Bi'
'uns'
'Additional_'
'92_'
'ld_'
'hen'
'abilities_'
'realities_'
'fer'
'dose_'
'bags_'
'grows_'
'conviction_'
'sar'
'confrontation_'
'Pri'
'war'
'delicate_'
'celebrate_'
'be'
'CC'
'Ac'
'servicing_'
'promulgated_'
'ga'
'conservative_'
'broadcast_'
'isolation_'
'geographic_'
'gather_'
'cle_'
'Spring_'
'Academy_'
'ranging_'
'assistant_'
'Bangladesh_'
'mud_'
'explosion_'
'ho'
'tourists_'
'robot_'
'enhancement_'
'edly_'
'revision_'
'differential_'
'calculate_'
'Sol'
'succeeded_'
'se'
'pile_'
'gray_'
'genes_'
'notion_'
'desirable_'
'Fa'
'NE'
'De'
'slip_'
'pregnancy_'
'controller_'
'Ste'
'una'
'ignored_'
'fri'
'anxiety_'
'resolving_'
'prevailing_'
'operated_'
'chu'
'ct_'
'PO'
'82_'
'shortly_'
'orally_'
'frozen_'
'explains_'
'acknowledge_'
'87_'
'Inter'
'н_'
'intend_'
'basketball_'
'Coordinator_'
'relevance_'
'countryside_'
'buried_'
'wounded_'
'instances_'
'urgently_'
'supplied_'
'ins_'
'entertainment_'
'risen_'
'layout_'
'bath_'
'Queen_'
'Pan'
'AM'
'96_'
')'
'ratification_'
'influences_'
'hing_'
'tennis_'
'engineer_'
'me'
'factories_'
'combine_'
'bankruptcy_'
'amendment_'
'Capital_'
'ideological_'
'colonial_'
'attach_'
'processed_'
'kick_'
'DE'
'pen_'
'kiss_'
'ight_'
'continuation_'
'bal'
'attitudes_'
'BA'
'unnecessary_'
'masses_'
'ato'
'ality_'
'Urges_'
'unde'
'swim_'
'Te'
'CS'
'ants_'
'memories_'
'hostile_'
'ae'
'Hu_'
'Dad_'
'searching_'
'expects_'
'do'
'LI'
'inherent_'
'constituted_'
'combating_'
'sustain_'
'geo'
'neighbors_'
'installations_'
'fulfill_'
'dish_'
'bulk_'
'hy'
'affair_'
'C'
'vis_'
'readers_'
'ea'
'asylum_'
'sy'
'resist_'
'fold_'
'filling_'
'aspirations_'
'MA'
'li_'
'imaging_'
'legally_'
'Upon_'
'UNRWA_'
'Think_'
'taxation_'
'shaft_'
'rope_'
'Gri'
'revolutionary_'
'amended_'
'ILO_'
'rail_'
'assumption_'
'valley_'
'snow'
'attacked_'
'man'
'Somali_'
'Lehman_'
'un'
'knee_'
'alike_'
'projected_'
'extending_'
'81_'
'unexpected_'
'skilled_'
'y'
'attaches_'
'wings_'
'tri'
'consult_'
'congratulate_'
'Des'
'wore_'
'cultivation_'
'accommodation_'
'Rather_'
'gun'
'FA'
'86_'
'lifted_'
'folk_'
'favorable_'
'diamond_'
'ver'
'negotiate_'
'engagement_'
'Jones_'
'sophisticated_'
'scholars_'
'romantic_'
'Uni'
'tribute_'
'proven_'
'packaging_'
'homework_'
'Min'
'wooden_'
'ups_'
'trillion_'
'quarters_'
'VI_'
'Mike_'
'Han_'
'environmentally_'
'bo_'
'Assistant_'
'incidence_'
'fra'
'Salvador_'
'PC_'
'suicide_'
'prop'
'possession_'
'fi'
'ethics_'
'producer_'
'lar_'
'Tunisia_'
'Everything_'
'si'
'rival_'
'deco'
'ck'
'Press_'
'rivers_'
'boundaries_'
'atic_'
'rt_'
'chamber_'
'Tajikistan_'
'Hence_'
'Barack_'
'petroleum_'
'bon'
'avoided_'
'finite_'
'ees_'
'climb_'
'cli'
'waited_'
'publishing_'
'impacts_'
'34'
'colleges_'
'Cha'
'tide_'
'staffing_'
'her'
'Young_'
'Ya'
'Wa'
'My'
'proposes_'
'boards_'
'Venezuela_'
'Kim_'
'Bio'
'po'
'internally_'
'inquiry_'
'complement_'
'Shu'
'sco'
'na'
'lessly_'
'gentle_'
'g'
'bold_'
'alo'
'James_'
'Habitat_'
'publicly_'
'passes_'
'AB'
'forthcoming_'
'dare_'
'dancing_'
'Ge'
'liberal_'
'keys_'
'Chi'
': '
'violated_'
'v'
'ncy_'
'Market_'
'Xinjiang_'
'eager_'
'Festival_'
'Cup_'
'32'
'л'
'pleasant_'
'Vo'
'lization_'
'radio'
'loving_'
'invasion_'
'h'
'psychology_'
'prosecution_'
'obstacle_'
'emerge_'
'discussing_'
'Weapons_'
'voted_'
'trigger_'
'corporation_'
'160_'
'rc'
'hostilities_'
'consultative_'
'calendar_'
'transitional_'
'occupational_'
'lion_'
'ban'
'appoint_'
'des'
'deficits_'
'ction_'
'BO'
'AT_'
'14'
'timing_'
'mas'
'detained_'
'TO'
'EC'
'perception_'
'an'
'virtue_'
'utilized_'
'touched_'
'ks'
'asks_'
'inequality_'
'themes_'
'stimulate_'
'rolled_'
'pi'
'mess_'
'robust_'
'limitations_'
'fought_'
'deterioration_'
'( _'
'upset_'
'3'
'neighbours_'
'ee'
'portfolio_'
'Pe'
'radar_'
'nut_'
'Mu'
'HI'
'progressive_'
'belonging_'
'Charles_'
'83_'
'statute_'
'sacrifice_'
'mes_'
'fever_'
'exhibition_'
'disappeared_'
'desertification_'
'Treatment_'
'rotation_'
'rises_'
'photo'
'deformation_'
'contractual_'
'．_'
'tors_'
'advised_'
'protest_'
'Commonwealth_'
'worn_'
'era'
'11'
'negotiated_'
'class1_'
'authorization_'
'UNEP_'
'98_'
'swi'
'loading_'
'han'
'ed'
'terrorists_'
'officially_'
'migrants_'
'IN_'
'investing_'
'congresses_'
'1978_'
'collecting_'
'borrowing_'
'ung_'
'tain'
'nya_'
'van'
'ranks_'
'modification_'
'immigrants_'
'detected_'
'amendments_'
'counties_'
'adequately_'
'seeks_'
'valued_'
'deputy_'
'cho'
'Richard_'
'AI'
'reiterated_'
'slight_'
'ree'
'phenomena_'
'infected_'
'audio_'
'Goldman_'
'weren_'
'shake_'
'ratified_'
'ional_'
'emotion_'
'hair'
'defects_'
'drag_'
'sh'
'ruled_'
'ome_'
'metres_'
'itis_'
'relax_'
'seismic_'
'gu'
'fatigue_'
'Effect_'
'restored_'
'nds_'
'hedge_'
'editor_'
'develops_'
'beside_'
'suspected_'
'install_'
'We'
'38'
'servants_'
'pop_'
'Emergency_'
'thirds_'
'phi'
'nta'
'durable_'
'Air'
'abstract_'
'sheets_'
'ration_'
'legitimacy_'
'connections_'
'GA'
'remembered_'
'instant_'
'entrepreneurs_'
'campaigns_'
'bike_'
'Libya_'
'Den'
'gra'
'accelerated_'
'War'
'As'
'lawful_'
'inhabitants_'
'down'
'buyers_'
'Nicaragua_'
'Libyan_'
'Lake_'
'nsi'
'minded_'
'dioxide_'
'allies_'
'accord_'
'AP'
'spreading_'
'Program_'
'sim'
'oa'
'brave_'
'abundant_'
'Cal'
'winner_'
'settings_'
'ou'
'accumulation_'
'accessible_'
'а'
'indication_'
'dra'
'Persons_'
'Joe_'
'Ver'
'loop_'
'highlighted_'
'dari_'
'WFP_'
'Pen'
'Jane_'
'renewable_'
'holders_'
'conscious_'
'Church_'
'shi'
'intensify_'
'hydrogen_'
'84_'
'ery_'
'damages_'
'conjunction_'
'amounted_'
'aluminum_'
'throat_'
'phrase_'
'ministry_'
'lifetime_'
'incurred_'
'Questions_'
'witnesses_'
'so'
'appreciated_'
'mi'
'home'
'guiding_'
'drivers_'
'tea'
'regimes_'
'industrialized_'
'divide_'
'custody_'
'stresses_'
'reliance_'
'modeling_'
'incentive_'
'wi'
'temple_'
'sentences_'
'insi'
'infant_'
'Zaire_'
'She'
'Algeria_'
'bones_'
'landing_'
'Micro'
'substitute_'
'indicating_'
'bite_'
'transmitting_'
'challenging_'
'Corp_'
'Can'
'sto'
'diabetes_'
'pit'
'demanding_'
'auction_'
'deny_'
'bowl_'
'servant_'
'cheer'
'Pin'
'traditions_'
'head'
'disability_'
'Senate_'
'CHAPTER_'
'tho'
'tan_'
'shops_'
'inspired_'
'brands_'
'Que'
'Mal'
'Bu'
'safeguarding_'
'harvest_'
'Muslims_'
'taxi_'
'athletes_'
'Agriculture_'
'meantime_'
'dramatically_'
'cle'
'au'
'Tin'
'temporarily_'
'pic'
'fool_'
'checks_'
'Nobody_'
'EM'
'sectoral_'
'prediction_'
'ju'
'factions_'
'LA'
'ethical_'
'Recent_'
'vic'
'Bulgaria_'
'variables_'
'references_'
'monopoly_'
'eliminated_'
'Hi_'
'41'
'New'
'Major_'
'Dep'
'ven'
'fined_'
'Martin_'
'Bor'
'tation_'
'lor'
'particle_'
'captured_'
'89_'
'supporters_'
'forestry_'
'dawn_'
'analyse_'
'Autonomous_'
'trials_'
'ras'
'ports_'
'pledged_'
'ana'
'obtaining_'
'Ur'
'flu'
'33'
'slope_'
'reinforce_'
'nk'
'formally_'
'choosing_'
'bankers_'
'Safety_'
'Property_'
'Ni'
'mate_'
'gently_'
'Timor_'
'screw_'
'o'
'forgot_'
'enables_'
'ching_'
'Modern_'
'ski'
'sa_'
'predicted_'
'exceptional_'
'bar'
'advise_'
'Along_'
'2'
'tackle_'
'sword_'
'35'
'reservation_'
'pit_'
'orange_'
'gifts_'
'bet_'
'upgrade_'
'raises_'
'cer'
'wireless_'
'su'
'recurrent_'
'ab'
'quietly_'
'intends_'
'OR'
'Heads_'
'mathematics_'
'impressive_'
'hurry_'
'ssion_'
'readiness_'
'mid'
'ceiling_'
'Dis'
'motivation_'
'Nor_'
'IP'
'ID'
'Corporation_'
'surgical_'
'hadn_'
'complaint_'
'Independent_'
'parliament_'
'bow_'
'utmost_'
'trick_'
'reportedly_'
'gi'
'evaluated_'
'publicity_'
'couples_'
'basin_'
'Ming_'
'Ma'
'sting_'
'reductions_'
'catalyst_'
'Hotel_'
'yl_'
'barrel_'
'Je'
'matching_'
'globe_'
'cigarette_'
'Production_'
'lea'
'Morocco_'
'CO'
'rocket_'
'profession_'
'hum'
'greenhouse_'
'Whoever_'
'Strategy_'
'ECB_'
'Against_'
'. (_'
'mill_'
'computing_'
'Journal_'
'ti_'
'coefficient_'
'Serbian_'
'Be'
'і'
'zo'
'smuggling_'
'outline_'
'flu_'
'employer_'
'ef'
'congress_'
'Provisions_'
'talents_'
'rings_'
'hed_'
'den'
'Sub'
'school'
'deserves_'
'unf'
'pulse_'
'CD'
'manufacturer_'
'coalition_'
'Copenhagen_'
'speaks_'
'amid_'
'unlike_'
'uncertain_'
'lli'
'convenience_'
'asleep_'
'wealthy_'
'costly_'
'conscience_'
'awarded_'
'jacket_'
'ye'
'residential_'
'Mer'
'CPC_'
'policymakers_'
'orbit_'
'inevitably_'
'ances_'
'van_'
'cut'
'ING_'
'Almost_'
'spatial_'
'pri'
'mul'
'corrosion_'
'Czech_'
'supplementary_'
'stro'
'removing_'
'nonlinear_'
'Chicago_'
'nic_'
'Tax_'
'emission_'
'criterion_'
'classified_'
'TION_'
'crossed_'
'Shenzhen_'
'lation_'
'drunk_'
'Ho'
'Bar'
'Bal'
'hes_'
'floating_'
'ASEAN_'
'ys'
'regulate_'
'l'
'exclusively_'
'emotions_'
'struggling_'
'macro_'
'drilling_'
'bi'
'trap_'
'moments_'
'de'
'ri_'
'Lan'
'pipeline_'
'ma'
'fraud_'
'treasure_'
'sand'
'multinational_'
'mandated_'
'illegally_'
'differ_'
'layers_'
'convey_'
'bat'
'outcomes_'
'label_'
'kh'
'io'
'breaks_'
'pays_'
'hon'
'eliminating_'
'vaccine_'
'transformed_'
'respects_'
'clever_'
'и'
'therapeutic_'
'she'
'accession_'
'Ethiopia_'
'о'
'synthetic_'
'iso'
'freight_'
'dam_'
'OBJECTIVE_'
'Elimination_'
'minimize_'
'grasp_'
'graduates_'
'fertility_'
'criminals_'
'clearing_'
'UN'
'Cra'
'rec'
'designer_'
'creativity_'
'col'
'z'
'ture_'
'Yo'
'William_'
'SS'
'Mus'
'surprising_'
'notably_'
'extract_'
'NI'
'opens_'
'locally_'
'barely_'
'spell_'
'radioactive_'
'absorb_'
'OS_'
'Early_'
'recognizes_'
'rape_'
'psycho'
'insisted_'
'identical_'
'Guatemala_'
'plug_'
'ha'
'foundations_'
'diagnostic_'
'FR'
'Art_'
're'
'esp'
'USA_'
'remuneration_'
'probability_'
'expresses_'
'elegant_'
'ID_'
'"'
'holy_'
'therein_'
'disabilities_'
'ce'
'cal'
'Recently_'
'Mongolia_'
'sul'
'lighting_'
'ci'
'Royal_'
'Ob'
'Light_'
'ved_'
'oversight_'
'justify_'
'delicious_'
'condemned_'
'ai_'
'Figure_'
'maintains_'
'Unlike_'
'Uh_'
'Stop_'
'somehow_'
'scenario_'
'ni_'
'di'
'critics_'
'striking_'
'launching_'
'fat'
'demanded_'
'air'
'abo'
'Sa'
'Cre'
'ur'
'combining_'
'accommodate_'
'Croatian_'
'vegetable_'
'tips_'
'pack_'
'ine'
'50'
'ida'
'engaging_'
'breathing_'
'inputs_'
'consist_'
'ambitious_'
'ry'
'boxes_'
'bidding_'
'VII_'
'Swiss_'
'Ke'
'thrown_'
'q_'
'horses_'
'pin_'
'ingredients_'
'friction_'
'Wu_'
'Or'
'hazardous_'
'Guangdong_'
'slowdown_'
'qualification_'
'dependence_'
'accepting_'
'Hu'
'optimistic_'
'lab_'
'dictionary_'
'beneath_'
'UNAVEM_'
'Montenegro_'
'195'
'reduces_'
'educated_'
'ble'
'Po'
'rank_'
'Fra'
'rous_'
'resin_'
'pale_'
'noble_'
'grey_'
'fucking_'
'counter'
'breakdown_'
'engineers_'
'defect_'
'Strengthening_'
'Scientists_'
'Effects_'
'Democrats_'
'moisture_'
'enacted_'
'cattle_'
'Islam_'
'Enterprise_'
'shoulders_'
'furnace_'
'blade_'
'NA'
'Hua'
'Holy_'
'unilateral_'
'piano_'
'pharmaceutical_'
'packed_'
'founding_'
'flame_'
'erosion_'
'deli'
'adhere_'
'Super'
'Check_'
'CD_'
'ular_'
'owed_'
'LL'
'us'
'tal_'
'forums_'
'crossing_'
'shoe_'
'quantities_'
'oca'
'grants_'
'declining_'
'cleansing_'
'); _'
'recipient_'
'hung_'
'foot'
'contest_'
'alleviate_'
'Engineering_'
'twelve_'
'missiles_'
'breeding_'
'sensing_'
'metals_'
'ech'
'VI'
'RMB_'
'dominated_'
'Tan'
'Set_'
'Qi'
'ual_'
'temperatures_'
'sustainability_'
'personally_'
'mel'
'implies_'
'calcium_'
'Poly'
'equilibrium_'
'bu'
'offence_'
'occurrence_'
'barrier_'
'Different_'
'supplement_'
'earliest_'
'endeavour_'
'Go'
'undoubtedly_'
'initiate_'
'gan_'
'97_'
'les'
'intensified_'
'elaborate_'
'Back_'
'uncle_'
'poetry_'
'undertakings_'
'eu'
'enti'
'ace'
'Os'
'Frank_'
'proceeds_'
'pet_'
'governor_'
'bars_'
'receives_'
'overwhelming_'
'joining_'
'dangers_'
'chaos_'
'attribute_'
'Za'
'Legislative_'
'EN'
'sel'
'mainstream_'
'NO'
'thickness_'
'spots_'
'solely_'
'ress_'
'reserved_'
'rain'
'ip'
'flesh_'
'boats_'
'Acting_'
'stretch_'
'panic_'
'irrigation_'
'alter_'
'Mag'
'hence_'
'dle_'
'Real_'
'Her'
'Finland_'
'Chamber_'
'Car'
'unacceptable_'
'indirect_'
'The'
'Hungary_'
'io_'
'Notes_'
'cried_'
'axis_'
'alliance_'
'Par'
'Invites_'
'DO'
'top'
'Rec'
'MI'
'liaison_'
'girlfriend_'
'blo'
'ES_'
'1967_'
'gradual_'
'environments_'
'employ_'
'beliefs_'
'ar'
'analyst_'
'ai'
'Ah_'
'purchases_'
'patience_'
'issuing_'
'Large_'
'glory_'
'circles_'
'Reaffirming_'
'promotes_'
'Pre'
'Haitian_'
'Anti'
'script_'
'rear_'
'pink_'
'highlight_'
'flew_'
'burned_'
'Over'
'ER'
'responding_'
'ram'
'lecture_'
'у'
'enjoying_'
'stri'
'prosperous_'
'expressing_'
'eo'
'complementary_'
'Activities_'
'dumping_'
'Wu'
'Kan'
'sodium_'
'mapping_'
'developers_'
'Commerce_'
'ra'
'fusion_'
'Tai'
'* _'
'winds_'
'ugly_'
'rod_'
'insist_'
'akan_'
'mus'
'mer'
'ay'
'ES'
'offensive_'
'medicines_'
'kel'
'exercising_'
','_'
'wherever_'
'varied_'
'elect_'
'Pra'
'shower_'
'elaboration_'
'council_'
'Trans'
'reaches_'
'Sarajevo_'
'HE'
'110_'
'algorithms_'
'xt'
'urgency_'
'node_'
'to'
'supervise_'
'confirmation_'
'stolen_'
'cheese_'
'Sam_'
'Reform_'
'ON_'
'rp'
'poorest_'
'liable_'
'consisting_'
'Securities_'
'sincerely_'
'oni'
'Ass'
'т'
'enforce_'
'cur'
'cabinet_'
'Due_'
'Com'
'1984_'
'strip_'
'scientist_'
'halt_'
'equations_'
'eni'
'confusion_'
'Sto'
'traditionally_'
'dea'
'reviewing_'
'liberty_'
'embrace_'
'destiny_'
'drops_'
'aesthetic_'
'Task_'
'MP'
'zer_'
'subsistence_'
'scu'
'ie'
'hired_'
'Powers_'
'Otherwise_'
'wastes_'
'reimbursement_'
'kar'
'inde'
'ket'
'Republicans_'
'Pet'
'Hai'
'Fu'
'roller_'
'nci'
'lease_'
'der'
'dd'
'uit'
'reporters_'
'reiterate_'
'modes_'
'ina_'
'class2_'
'ug'
'texts_'
'shit_'
'correction_'
'SH'
'CL'
'thrust_'
'singer_'
'quit_'
'ok_'
'.'_'
'demonstrates_'
'cited_'
'IA'
'39'
'ia'
'bre'
'Sorry_'
'IE'
'Do'
'purchased_'
'geological_'
'directory_'
'ches_'
'Zi'
'Stanley_'
'verified_'
'expressions_'
'administered_'
'intra'
'enjoyment_'
'cruel_'
'consultants_'
'aggregate_'
'adi'
'quest_'
'Europeans_'
'Ban'
'ro_'
'47'
'zz'
'writers_'
'protests_'
'odd_'
'letting_'
'fa'
'avoiding_'
'Lea'
'1979_'
'vis'
'systematically_'
'rental_'
'neutral_'
'ei'
'Tang_'
'Nature_'
'Bay_'
'37'
'shook_'
'listened_'
'Likewise_'
'tit'
'seas_'
'reintegration_'
'discriminatory_'
'deadline_'
'Wait_'
'sea'
'counsel_'
'conform_'
'Wen_'
'Ma_'
'convening_'
'calculating_'
'ado'
'Han'
'Election_'
'staying_'
'rat_'
'pee'
'farming_'
'36'
'width_'
'probe_'
'back'
'ative_'
'addresses_'
'Ro'
'Hall_'
'va'
'tune_'
'traveling_'
'satellites_'
'maternal_'
'judgement_'
'Ren'
'Nor'
'Financing_'
'Climate_'
'tear_'
'stricken_'
'star'
'over'
'ada_'
'Welcomes_'
'Dutch_'
'Chang'
'hatred_'
'electro'
'ca'
'Jin'
'recruited_'
'experiencing_'
'artists_'
'Internal_'
'succession_'
'scared_'
'ko_'
'huh_'
'Port'
'Co'
'16'
'justified_'
'examining_'
'deficiency_'
'break'
'graph_'
'routes_'
'har'
'generator_'
'distinguish_'
'socialism_'
'publish_'
'notify_'
'Dam'
'> _'
' ] _'
'uri'
'ec'
'dengan_'
'chi'
'Up_'
'stranger_'
'mild_'
'fied_'
'ac_'
'Enterprises_'
'retired_'
'lacking_'
'eth'
'associate_'
'Monitoring_'
'toll_'
'supervisory_'
'sho'
'apo'
'2012_'
'managerial_'
'awa'
'Ph'
'dishes_'
'vy_'
'sentiment_'
'laying_'
'failures_'
'are'
'Men'
'our'
'colored_'
'coherent_'
'typ'
'thief_'
'seller_'
'lin'
'destructive_'
'cheaper_'
'styles_'
'specially_'
'retained_'
'ministries_'
'mediation_'
'distinguished_'
'biology_'
'attempting_'
'UNIDO_'
'supportive_'
'IC_'
'metric_'
'intent_'
'Nu'
'slide_'
'dip'
'Unity_'
'Companies_'
'Clinical_'
'BE'
'translate_'
'tab'
'lla_'
'ideology_'
'essay_'
'une'
'tangible_'
'nding_'
'endless_'
'comprises_'
'babies_'
'surge_'
'holidays_'
'Captain_'
'hills_'
'blast_'
'Ba'
'1982_'
'ana_'
'abandon_'
'Madrid_'
'Ab'
'utilize_'
'positively_'
'museum_'
'109_'
'automobile_'
'ane'
'Soon_'
'Culture_'
'u'
'surrounded_'
'recovered_'
'pe'
'reactions_'
'nurse_'
'encounter_'
'Whenever_'
'Tre'
'gang_'
'engines_'
'elastic_'
'coupled_'
'approached_'
'Home_'
'Cru'
'Comprehensive_'
'vulnerability_'
'sin'
'aff'
'varying_'
'rigid_'
'defining_'
'bicycle_'
'attributes_'
'Too_'
'weekly_'
'visa_'
'unfair_'
'Regarding_'
'Pi'
'wool_'
'contractor_'
'Forces_'
'Efforts_'
'turmoil_'
'specifications_'
'nan_'
'compression_'
'bla'
'successor_'
'forgive_'
'SP'
'monitored_'
'joke_'
'UNOMIL_'
'з'
'wondered_'
'vas'
'tol'
'para'
'mile_'
'compounds_'
'abuses_'
'Bel'
'liberation_'
'fuels_'
'Anyone_'
'class3_'
'Ordinance_'
'IS_'
'Hy'
'wind'
'nuts_'
'drama_'
'sooner_'
'pan'
'fulfilling_'
'explosive_'
'butter_'
'bedroom_'
'ara'
'Club_'
'remedy_'
'hybrid_'
'enjoys_'
'ER_'
'Dalai_'
'Concerning_'
'Again_'
'shame_'
'eligible_'
'beef_'
'assessing_'
'NT'
'43'
'snake_'
'formulating_'
'Ga'
'ola'
'eta'
'compatible_'
'1949_'
'outset_'
'motivated_'
'knock_'
'Kar'
'At'
'Ana'
' %._'
'unemployed_'
'trea'
'ten'
'modify_'
'lens_'
'Trump_'
'Out_'
'Lebanese_'
'incorporate_'
'deadly_'
'attain_'
'Cy'
'к'
'nowadays_'
'ACC_'
'Order_'
'query_'
'plasma_'
'osi'
'one'
'futures_'
'cross'
'cognitive_'
'Cuban_'
'Committees_'
'60'
'seldom_'
'optimum_'
'km_'
'inspections_'
'hunting_'
'billions_'
'avi'
'admission_'
'orderly_'
'eli'
'carcinoma_'
'bra'
'Vol'
'speeds_'
'short'
'sells_'
'oe'
'wn_'
'muscles_'
'ela'
'Sand'
'Representatives_'
'Jewish_'
'Bai'
'rendered_'
'privacy_'
'helicopter_'
'flies_'
'expecting_'
'certification_'
'Yi'
'42'
'electron_'
'tle_'
'indicator_'
'2011_'
'NPT_'
'sauce_'
'pin'
'doubts_'
'cancel_'
'Theory_'
' . '
'sympathy_'
'steal_'
'prisoner_'
'swa'
'researches_'
'procedural_'
'pledge_'
'harsh_'
'handsome_'
'codes_'
'Stra'
'Ham'
'ji_'
'drying_'
'Yugoslav_'
'US'
'Taliban_'
'Sure_'
'Steel_'
'ser_'
'organisations_'
'Thirdly_'
'tre'
'ante'
'spin_'
'reject_'
'plot_'
'od'
'credible_'
'Mom_'
'obliged_'
'dot'
'circular_'
'apparatus_'
'accumulated_'
'timetable_'
'infectious_'
'aries_'
'tro'
'no'
'day'
'Statistics_'
'48'
' ! _'
'ition_'
'ino'
'gotten_'
'castle_'
'breach_'
'boo'
'agrees_'
'Table_'
'Looking_'
'Belgium_'
'1'
'democratization_'
'46'
'monitors_'
'lem'
'hu'
'Paragraph_'
'punish_'
'pie'
'painted_'
'ili'
'tar'
'sions_'
'Relations_'
'testimony_'
'reader_'
'preference_'
'Is'
'Guangzhou_'
'night'
'gentleman_'
'explored_'
'class4_'
'boyfriend_'
'Ye'
'Cold_'
'10'
'rage_'
'pul'
'Ad_'
'render_'
'refrain_'
'mes'
'grand'
'fitting_'
'cra'
'conception_'
'yed_'
'plates_'
'lai'
'Thomas_'
'specification_'
'hygiene_'
'Out'
'sunlight_'
'nted_'
'lit_'
'bur'
'benefited_'
'Tri'
'Qui'
'Azerbaijan_'
'governed_'
'epi'
'controversial_'
'tactics_'
'squa'
'restaurants_'
'recognizing_'
'disappointed_'
'sorts_'
'sor'
'rated_'
'mono'
'it'
'evaluating_'
'charity_'
'abundance_'
'Us'
'Cat'
'safely_'
'meals_'
'ld'
'edition_'
'Sur'
'Room_'
'Dra'
'Current_'
'vo'
'divisions_'
'advertisement_'
'Fla'
'44'
'walks_'
'voices_'
'spray_'
'rly_'
'post'
'og'
'ob'
'estimation_'
'disa'
'attending_'
'Firstly_'
'warehouse_'
'pig_'
'performances_'
'grace_'
'equi'
'auto'
'art'
'Zu'
'194'
'za'
'translated_'
'stra'
'ological_'
'nevertheless_'
'diameter_'
'Status_'
'Learn_'
'ash_'
'Egyptian_'
'wa_'
'uring_'
'crying_'
'UR'
'Often_'
'History_'
've'
'sle'
'fierce_'
'disappear_'
'countermeasures_'
'minerals_'
'loaded_'
'kon'
'competitors_'
'absorbed_'
'Defense_'
'parliamentary_'
'junior_'
'desperate_'
'beg'
'Computer_'
'ps'
'fled_'
'Low_'
'Blue_'
'volatile_'
'usly_'
'tariff_'
'flavor_'
'zes_'
'ul'
'prejudice_'
'elite_'
'ba'
'unclear_'
'pitch_'
'iii_'
'fisheries_'
'cylinder_'
'vigorous_'
'journal_'
'class5_'
'argues_'
'ani'
'Revolution_'
'GO'
'partnerships_'
'cow_'
'Suddenly_'
'Language_'
'Costa_'
'refusal_'
'mm_'
'creature_'
'char'
'alternatives_'
'Yuan_'
'preferential_'
'duplication_'
'Texas_'
'Educational_'
'sweet'
'ris'
'rejection_'
'regulators_'
'encouragement_'
'Berlin_'
'pressed_'
'compensate_'
'abnormal_'
'Belarus_'
'we'
'troubled_'
'embedded_'
'Col'
'Agricultural_'
'13'
'. , _'
'phases_'
'permits_'
'nitrogen_'
'mounted_'
'lateral_'
'boring_'
'restraint_'
'ir'
'guards_'
'Ben_'
'ile'
'hazard_'
'fro'
'buyer_'
'EP'
'DR'
'his'
'dried_'
'Tur'
'TO_'
'rea'
'questioned_'
'execute_'
'evolved_'
'esc'
'eld_'
'differently_'
'decent_'
'Romania_'
'nti'
'notification_'
'grades_'
'Something_'
'musical_'
'ker'
'ire_'
'dro'
'ced_'
'affection_'
'Me'
'Di'
'é_'
'versions_'
'sted_'
'kes_'
'offences_'
'liabilities_'
'hm'
'hiding_'
'combustion_'
'ais'
'ECOMOG_'
'CF'
'woods_'
'mask_'
'counterparts_'
'-'
'tidak_'
'sufficiently_'
'run'
'pon'
'ively_'
'fre'
'dies_'
'Latvia_'
'Bob_'
'villagers_'
'reactor_'
'gro'
'aw'
'FOR_'
'Bir'
'20'
'violate_'
'upward_'
'pu'
'opponent_'
'Zone_'
'Peru_'
'Len'
'Consider_'
'reception_'
'pole_'
'mystery_'
'imposing_'
'opponents_'
'institutes_'
'Tar'
'Star_'
'Kosovo_'
'Eli'
'tap_'
'peri'
'jun'
'freeze_'
'elo'
'altogether_'
'advocate_'
'Compared_'
'74'
'ski_'
'prerequisite_'
'ensi'
'LDCs_'
'tor'
'time'
'merger_'
'emphasizes_'
'Gra'
'Bea'
'yn'
'worship_'
'vector_'
'parking_'
'neural_'
'gases_'
'offshore_'
'expectation_'
'readily_'
'ntly_'
'ali'
'Les'
'Harvard_'
'eaten_'
'clay_'
'ace_'
'Mos'
'Chelsea_'
'reveals_'
'economical_'
'cas'
'applicants_'
'infrared_'
'gle_'
'flowing_'
'easing_'
'Anti_'
'sunshine_'
'shelf_'
'popularity_'
'peasants_'
'lling_'
'limiting_'
'intermediate_'
'here'
'Conc'
'Armenia_'
'minimal_'
'issuance_'
'improves_'
'Port_'
'Am'
'tracks_'
'termination_'
'legacy_'
'employing_'
'dismissed_'
'ational_'
'Mel'
'Head_'
'Bei'
'play'
'deputies_'
'convergence_'
'centred_'
'speculation_'
'spe'
'ea_'
'devil_'
'besides_'
'approaching_'
'adaptive_'
'PE'
'Bee'
'super'
'sink_'
'relay_'
'poem_'
'ours_'
'modalities_'
'dri'
'disc'
'charm_'
'behaviors_'
'au_'
'Growth_'
'nationwide_'
'ht'
'alle'
'Conclusions_'
'uk'
'hotels_'
'IP_'
'wood'
'transmit_'
'persuade_'
'passive_'
'min'
'blocked_'
'TE'
'Star'
'Lin'
'odo'
'inspiration_'
'spirits_'
'Hor'
'texture_'
'rn_'
'renminbi_'
'late'
'disclosure_'
'despair_'
'absent_'
'Mao_'
'Arabic_'
'с'
'shortcomings_'
'ric_'
'j'
'fulness_'
'diagram_'
'assurance_'
'specialists_'
'compact_'
'CEO_'
'45'
'worries_'
'prince_'
'premium_'
'masters_'
'anxious_'
'sponsor_'
'intentions_'
'imper'
'explicit_'
'adjusting_'
'Premier_'
'Ed'
'EL'
'impetus_'
'ette_'
'Wen'
'Pur'
'El'
'scenery_'
'posted_'
'overs'
'id'
'ched_'
'GM_'
'renewal_'
'qui'
'green'
'Officer_'
'Ask_'
'residual_'
'oma_'
'blank_'
'volunteers_'
'varieties_'
'reaffirm_'
'liquidation_'
'influential_'
'hi'
'ecosystem_'
'displays_'
'basket_'
'Someone_'
'ert'
'dec'
'cre'
'SM'
' . . . _'
'pragmatic_'
'interfere_'
'databases_'
'concluding_'
'care'
'adaptation_'
'Strip_'
'Chemical_'
'wer'
'surfaces_'
'r'
'ken'
'elli'
'dirt_'
'definite_'
'complications_'
'Windows_'
'Sch'
'Bon'
'AL_'
'vity_'
'riding_'
'linkages_'
'Youth_'
'und_'
'packages_'
'eth_'
'dull_'
'atomic_'
'Catholic_'
' \u _'
'restrict_'
'microwave_'
'kingdom_'
'jury_'
'jail_'
'hat'
'fulfilled_'
'scar'
'rse'
'washed_'
'predecessor_'
'Common_'
'ssa'
'impo'
'fossil_'
'curb_'
'ans'
'Bas'
'130_'
'sisters_'
'nar'
'deepen_'
'adapted_'
'Library_'
'outbreak_'
'imbalances_'
'demobilization_'
'cleared_'
'awards_'
'ap'
'scarce_'
'institute_'
'immuno'
'hus'
'gaining_'
'auspices_'
'Commercial_'
'Certainly_'
'stock'
'st'
'por'
'lacks_'
'Jean_'
'Everybody_'
'closure_'
'bonus_'
'announce_'
'Cypriot_'
'toy_'
'ova'
'lt'
'devastating_'
'china_'
'Zimbabwe_'
'PD'
'Bus'
'Ben'
'ov_'
'lean_'
'drill_'
'abortion_'
'aba'
'Cas'
'industrialization_'
'forecasts_'
'champion_'
'Wis'
'Multi'
'Keywords_'
'researched_'
'luggage_'
'Woods_'
'Shall_'
'tt_'
'placing_'
'drives_'
'automation_'
'Sen'
'Los_'
'planted_'
'openness_'
'laughter_'
'importantly_'
'Neither_'
'ladies_'
'bun'
'black'
'ads_'
'Nepal_'
'mb'
'CP'
'sweat_'
'sun'
'slowing_'
'penalties_'
'bridges_'
'spa'
'ona'
'malaria_'
'interventions_'
'exceeding_'
'cu'
'Team_'
'Experience_'
'б'
'unhappy_'
'ol'
'nit'
'gli'
'exploit_'
'class6_'
'bit'
'WE'
'.  _'
'knocked_'
'clarify_'
'casualties_'
'Valley_'
'Steve_'
'ж'
'stops_'
'ship'
'matches_'
'ford_'
'festival_'
'confined_'
'Tanzania_'
'Pea'
'IM'
'Estonia_'
'vi'
'smoothly_'
'op'
'Hamas_'
'CM'
'BI'
'18'
'hosted_'
'Question_'
'ton'
'swing_'
'rivals_'
'mot'
'ensured_'
'Qing_'
'Nobel_'
'occasionally_'
'Under'
'Grand_'
'Contract_'
'1970_'
'breathe_'
'Learning_'
'requesting_'
'mayor_'
'et'
'can'
'traders_'
'oppose_'
'backward_'
'Fortunately_'
'Ford_'
'strikes_'
'ro'
'rib'
'fer_'
'complain_'
'ava'
'Inspection_'
'prolonged_'
'pound_'
'gy_'
'gen_'
'collapsed_'
'cla'
'Boutros_'
'ms'
'listing_'
'alert_'
'Sho'
'will'
'prevail_'
'dressing_'
'confronted_'
'Du'
'seize_'
'rk_'
'cations_'
'Except_'
'universally_'
'temper_'
'OP'
'Export_'
'quarantine_'
'quar'
'nowhere_'
'lar'
'garbage_'
'brick_'
'You'
'22'
'tos'
'sum'
'exploring_'
'cru'
'bro'
'TH'
'yell'
'scores_'
'clo'
'Traditional_'
'Tha'
'spheres_'
'du'
'dissertation_'
'RES'
'Jackson_'
'DS'
'withdrawn_'
'ent'
'consulting_'
'bathroom_'
'AS_'
'toys_'
'shorter_'
'ref'
'realizing_'
'purely_'
'or'
'converted_'
'Liverpool_'
'Former_'
'scenes_'
'propaganda_'
'mandatory_'
'ide'
'XML_'
'tele'
'frontier_'
'forcing_'
'ami'
'urs_'
'queen_'
'lim'
'est'
'diesel_'
'Excuse_'
'yields_'
'pulling_'
'mount_'
'lover_'
'hs_'
'gir'
'ars_'
'Nowadays_'
'Fin'
'Considering_'
'Atomic_'
'proceeded_'
'manufactured_'
'golf_'
'yen_'
'sation_'
'hook_'
'beating_'
'HK_'
'Far'
'Ag'
'56'
'tim'
'bab'
'UNU_'
'zi_'
'shy_'
'ere'
'contractors_'
'cavity_'
'but'
'as'
'aci'
'who'
'maps_'
'Poor_'
'Class_'
'tiger_'
'sen'
'reconsideration_'
'planes_'
'flash_'
'ff'
'exercised_'
'connecting_'
'cadres_'
'ш'
'ids_'
'ib'
'exhausted_'
'ell_'
'commander_'
'bye_'
'ak'
'Officials_'
'tanks_'
'ney_'
'gel_'
'explanations_'
'defensive_'
'alleviation_'
'Sim'
'reluctant_'
'kidney_'
'iti'
'electromagnetic_'
'defi'
'aga'
'KE'
'umbrella_'
'investigating_'
'broadcasting_'
'OECD_'
'Eu'
'ups'
'tte_'
'exchanged_'
'bri'
'Mil'
'Generally_'
'thro'
'tale_'
'stamp_'
'needle_'
'Transitional_'
'NP'
'spect'
'selective_'
'hy_'
'draws_'
'MS'
'ria_'
'prostitution_'
'preambular_'
'gay_'
'Wei'
'slept_'
'deck_'
'competing_'
'capitalism_'
'val'
'pity_'
'outputs_'
'bent_'
'secured_'
'quo_'
'dg'
'confused_'
'beneficiaries_'
'airspace_'
'Yemen_'
'Flu'
'Consultative_'
'vigorously_'
'protects_'
'omi'
'happily_'
'celebration_'
'Process_'
'relaxed_'
'pel'
'nail_'
'cor'
'clinic_'
'Sun'
'? '
'tribunal_'
'sorrow_'
'provider_'
'proves_'
'blog_'
'ala'
'Mas'
'Liberation_'
'FDI_'
'shield_'
'royal_'
'reads_'
'oceans_'
'Experimental_'
'49'
'undo'
'pun'
'is'
'appropriately_'
'Hol'
'CA'
'flown_'
'ensures_'
'dit'
'collectively_'
'bull'
'bore_'
'ST_'
'FT'
'inex'
'fle'
'exceptions_'
'emp'
'Software_'
'wal'
'vit'
'ust'
'depressed_'
'bunch_'
'bia'
'treatments_'
'om'
'nel'
'banned_'
'ards_'
'tt'
'leverage_'
'disc_'
'Additionally_'
'sive_'
'pping_'
'erg'
'determines_'
'consecutive_'
'advancing_'
'IL'
'selecting_'
'pot'
'gaps_'
'austerity_'
'afterwards_'
'Rica_'
'vitamin_'
'urbanization_'
'lev'
'humor_'
'genius_'
'elementary_'
'dig_'
'cul'
'bi_'
'Ei'
'Ali'
'pea'
'paras_'
'optimism_'
'occurring_'
'mo'
'leisure_'
'fastest_'
'doctrine_'
'debris_'
'confront_'
'Obviously_'
'sse'
'observance_'
'key'
'eas'
'crown_'
'PRC_'
'spiral_'
'shifting_'
'lifestyle_'
'consistency_'
'Urban_'
'measurements_'
'drift_'
'bin_'
' !_'
'travelling_'
'kindness_'
'hu_'
'gar'
'creatures_'
'Xi_'
'mold_'
'grinding_'
'clubs_'
'cerebral_'
'Angeles_'
'worm_'
'password_'
'optimize_'
'lah_'
'extradition_'
'deciding_'
'convene_'
'ain'
'ack_'
'Tro'
'Provide_'
'Pres'
'unfortunately_'
'stainless_'
'reasonably_'
'oxide_'
'nationalities_'
'deleted_'
'crowded_'
'Manager_'
'sealed_'
'kilometers_'
'adopts_'
'Xi'
'PT'
'yan'
'genic_'
'fairness_'
'cat'
'PRO'
'COM'
'zinc_'
'med'
'comprising_'
'chains_'
'arche'
'adventure_'
'you'
'wildlife_'
'propo'
'def'
'Bou'
'ros'
'providers_'
'ph'
'neglect_'
'beans_'
'Better_'
'va_'
'traded_'
'suspend_'
'soccer_'
'roo'
'pray_'
'ile_'
'explicitly_'
'es'
'dise'
'assi'
'Ut'
'70'
'vin'
'rif'
'repu'
'Xiao'
'cit'
'xi_'
'linguistic_'
'impressed_'
'continuity_'
'Watch_'
'Fi'
'mounting_'
'gh_'
'excitement_'
'structured_'
'pollutants_'
'hal'
'Ir'
'Hal'
'Ghana_'
'wai'
'unin'
'palace_'
'op_'
'meteorological_'
'comp'
'bles_'
'tie'
'react_'
'convert_'
'bare_'
'workload_'
'ured_'
'seemingly_'
'ranking_'
'mas_'
'judiciary_'
'fe'
'reporter_'
'loads_'
'cents_'
'Tony_'
'Mc'
'Don'
''._'
'stabilization_'
'rin'
'pada_'
'morality_'
'mechanics_'
'WI'
'Station_'
'CB'
'2015_'
'101_'
'paintings_'
'neighborhood_'
'mitigate_'
'im_'
'ig'
'horizon_'
'delegates_'
'adjacent_'
'Total_'
'ws_'
'slower_'
'nge'
'endo'
'True_'
'Mat'
'Blo'
'21'
'1973_'
'upgrading_'
'toilet_'
'partially_'
'gg'
'cts_'
'commended_'
'broadly_'
'artery_'
'Proliferation_'
'MS_'
'Id'
'ting'
'tightly_'
'risky_'
'che_'
'chat_'
'Ple'
'Euro'
'sampling_'
'rows_'
'prompted_'
'Lastly_'
'Interim_'
'vera'
'ho_'
'bee'
'Official_'
'Arm'
'tent_'
'shots_'
'lip_'
'incomplete_'
'cleaner_'
'auditing_'
'angel_'
'ED'
'55'
'watch'
'suited_'
'serum_'
'finishing_'
'executing_'
'dos'
'dalam_'
'Register_'
'Qu'
'polymer_'
'past'
'oph'
'ont'
'immense_'
'graduation_'
'fake_'
'suits_'
'rally_'
'continually_'
'consuming_'
'assault_'
'SU'
'princess_'
'networking_'
'congratulations_'
'breakthrough_'
'berg_'
'UNOMIG_'
'twin_'
'poses_'
'inch_'
'Marine_'
'Leg'
'hol'
'heart'
'gasoline_'
'developmental_'
'wed_'
'useless_'
'undergoing_'
'solicit'
'pointing_'
'mbi'
'eri'
'convince_'
'Type_'
'Tor'
'xa'
'wondering_'
'tory_'
'sacred_'
'lab'
'Private_'
'Post_'
'Bridge_'
'whereby_'
'shallow_'
'pen'
'oti'
'occ'
'integrating_'
'inheritance_'
'flour_'
'commands_'
'soap_'
'smiled_'
'drain_'
'disturbing_'
'dining_'
'daughters_'
'climbed_'
'targeting_'
'rs'
'referring_'
'pupils_'
'ow'
'feared_'
'escaped_'
'erm'
'dys'
'Ne'
'ung'
'hard'
'by'
'ase_'
'CO_'
'rhetoric_'
'nda'
'eff'
'duck_'
'deb'
'circulated_'
'Sar'
'Credit_'
'Branch_'
'н'
'uous_'
'unre'
'ron_'
'preserved_'
'osis_'
'land'
'infections_'
'ger'
'deliberately_'
'declarations_'
'backing_'
'Dec'
'wolf_'
'hou'
'coup_'
'corrupt_'
'Mac_'
'Sudanese_'
'Prof_'
'Hydro'
'Annex_'
'Allow_'
'suspicion_'
'proceeding_'
'facto_'
'cave_'
'alien_'
'Mari'
'reminded_'
'not'
'neighbor_'
'nal_'
'filing_'
'bother_'
'Insurance_'
'Chairmen_'
'1981_'
'191'
'theatre_'
'ghost_'
'ge'
'exceeded_'
'damaging_'
'end'
'deca'
'regulated_'
'dul'
'contributes_'
'bleeding_'
'Poverty_'
'Ministerial_'
'tenth_'
'statutory_'
'securing_'
'curl'
'Governor_'
'talented_'
'scent_'
'pop'
'glance_'
'atmospheric_'
'appetite_'
'Full_'
'84'
'umb'
'stopping_'
'repairs_'
'ministerial_'
'fires_'
'distress_'
'ano'
'ң_'
'й'
'rightly_'
'regulating_'
'landed_'
'EA'
'51'
'wrapped_'
'uphold_'
'ums_'
'textile_'
'oh'
'noting_'
'mobility_'
'keeper_'
'forbidden_'
'enters_'
'comparable_'
'cock'
'scan_'
'rooted_'
'hei'
'forecasting_'
'criticized_'
'conceptual_'
'ambition_'
'Mala'
'Hospital_'
'individually_'
'gue_'
'52'
'triggered_'
'ows_'
'flo'
'emi'
'downward_'
'chan'
'Pakistani_'
'ONUSAL_'
'Florida_'
'inserted_'
'infi'
'funeral_'
'dating_'
'damn_'
'beds_'
'Sri_'
'Cap'
'80'
'trapped_'
'skirt_'
'silicon_'
'Transport_'
'Sales_'
'Con'
'trains_'
'climbing_'
'child'
'altered_'
'nas'
'livestock_'
'hypo'
'deploy_'
'cautious_'
'buffer_'
'bera'
'ave'
'Budgetary_'
'uli'
'organisation_'
'maturity_'
'accountable_'
'accorded_'
'Dun'
'Deb'
'Apart_'
'scattered_'
'rap'
'owe_'
'marking_'
'circumstance_'
'shear_'
'scandal_'
'rebuild_'
'overview_'
'drum_'
'allocate_'
'ED_'
'Disaster_'
'Dai'
'tz_'
'doubled_'
'describing_'
'continental_'
'Yu_'
'Nairobi_'
'Him_'
'shortages_'
'replies_'
'ort'
'magazines_'
'hath_'
'establishes_'
'eal_'
'beaten_'
'ained_'
'Systems_'
'unanimously_'
'lam'
'hey_'
'columns_'
'Money_'
'Fore'
'relieve_'
'races_'
'privatization_'
'granting_'
'grandmother_'
'volumes_'
'mine'
'ek_'
'alongside_'
'aka'
'advisers_'
'VIII_'
'yma'
'unfortunate_'
'tche'
'purple_'
'math_'
'mat'
'invented_'
'disadvantaged_'
'Hope_'
'Geo'
'yan_'
'wholly_'
'uo'
'stru'
'ni'
'merit_'
'deprived_'
'berry_'
'Ins'
'screening_'
'restoring_'
'naked_'
'Product_'
'ren'
'mod'
'mn'
'fen'
'Lusaka_'
'IR'
'pp'
'municipality_'
'immunity_'
'Sino_'
'Post'
'Contact_'
'pertaining_'
'facilitated_'
'diver'
'coupling_'
'NEW_'
'Lin_'
'IF'
' <_'
'ster'
'silly_'
'picking_'
'medal_'
'bell'
'FE'
'rio'
'outs_'
'libraries_'
'fancy_'
'counting_'
'convicted_'
'ch'
'apa'
'ft'
'facial_'
'chapters_'
'Doctor_'
'rushed_'
'rian_'
'reinforcing_'
'overt'
'nights_'
'jiang_'
'fathers_'
'distribute_'
'designers_'
'bet'
'Universal_'
'Tun'
'Sarkozy_'
'Bol'
'BR'
'grab_'
'disciplinary_'
'consultant_'
'Used_'
'practically_'
'oldest_'
'gas'
'ben'
'Exc'
'192'
'105_'
'shareholder_'
'licence_'
'ideals_'
'blood'
'CIS_'
'sect_'
'colorful_'
'Square_'
'SA_'
'Lei'
'Brothers_'
'inappropriate_'
'founder_'
'eternal_'
'devote_'
'attendance_'
'Labor_'
'п'
'sci'
'hua_'
'brains_'
'bis'
'Va'
'Song_'
'ME'
'thereon_'
'qualitative_'
'ota'
'olo'
'march_'
'innovations_'
'firing_'
'examinations_'
'confidential_'
'Baghdad_'
'shine_'
'deepening_'
'clarification_'
'SD'
'Guam_'
'Ger'
'semi'
'ght'
'excluded_'
'electronics_'
'bli'
'attained_'
'Lau'
'";_'
'sail_'
'don'
'check'
'balls_'
'Statistical_'
'Sixth_'
'Case_'
'ultra_'
'spaces_'
'shapes_'
'rov'
'cia'
'Making_'
'Evaluation_'
'Ang'
'ok'
'colleague_'
'behave_'
'Ol'
'Ele'
'swept_'
'poet_'
'leg'
'Determination_'
'ы'
'trades_'
'stairs_'
'rever'
'molecules_'
'inferior_'
'del'
'deer_'
'comb'
'cann'
'ECE_'
'Bla'
'Articles_'
'tens_'
'Had_'
'operates_'
'oid_'
'meanwhile_'
'chi_'
'bamboo_'
'Jews_'
'oxidation_'
'ners_'
'inherited_'
'harassment_'
'fac'
'benchmark_'
'Settlements_'
'Av'
'қа'
'lia'
'ives_'
'carpet_'
'breed_'
'Responsible_'
'For'
'71'
'stance_'
'shade_'
'quantum_'
'mercy_'
'lining_'
'irre'
'elaborated_'
'brand'
'TT'
'Jam'
'Expresses_'
'rop'
'distinctive_'
'attributed_'
'Welcoming_'
'Electronic_'
'Cla'
'Ca'
'rom'
'remedies_'
'eno'
'dedication_'
'Sti'
'Performance_'
'Initiative_'
'Gen'
'weaker_'
'sends_'
'oc'
'merits_'
'inability_'
'ht_'
'gui'
'disagree'
'ss'
'rt'
'linking_'
'debates_'
'cop'
'cage_'
'Stock_'
'Electric_'
'锛'
'warfare_'
'procuring_'
'ites_'
'inclusive_'
'favourite_'
'Say_'
'Black'
'yb'
'vie'
'slowed_'
'sia_'
'motherland_'
'lately_'
'if'
'Won'
'Ay'
'Albania_'
'Above_'
'understands_'
'subtle_'
'privileges_'
'inspect_'
'hers_'
'bling_'
'Scotland_'
'veri'
'lla'
'il'
'healing_'
'dam'
'bo'
'Mount_'
'strongest_'
'slu'
'gentlemen_'
'documented_'
'antly_'
'Turn_'
'Scr'
'Higher_'
'Electoral_'
'AG'
' ), _'
'weaknesses_'
'ud'
'torch_'
'lord_'
'jia'
'interactive_'
'Investors_'
'solvent_'
'prone_'
'poke'
'laundering_'
'iving_'
'decoration_'
'bes'
'Ten_'
'Red'
'Irish_'
'Digital_'
'threatens_'
'suggesting_'
'istic_'
'ica'
'fertilizer_'
'abs'
'Johnson_'
'Intergovernmental_'
'Hollywood_'
'writes_'
'wea'
'var'
'sleep'
'rude_'
'maid_'
'breeze_'
'altitude_'
'alism_'
'McCain_'
'law'
'Rwandese_'
'DP_'
'mixing_'
'mal'
'extensively_'
'allegedly_'
'Seven_'
'; '
'1974_'
'warn_'
'rat'
'oli'
'graphics_'
'exporters_'
'cultivated_'
'confiscated_'
'arc_'
'Electro'
'Ecuador_'
'thi'
'grammar_'
'comparing_'
'caution_'
'bride_'
'attracting_'
'PS'
'Gold_'
'manifestations_'
'intervene_'
'faults_'
'Final_'
'yar'
'prohibition_'
'pie_'
'narrative_'
'nano'
'justification_'
'exclusion_'
'Cop'
'Clearly_'
'Ad'
'108_'
'sits_'
'planting_'
'illustrate_'
'globally_'
'curious_'
'Tourism_'
'Sachs_'
'Mars_'
'slipped_'
'refuses_'
'met'
'invisible_'
'derivatives_'
'cord_'
'barbe'
'Kazakhstan_'
'15'
'titles_'
'rmi'
'laughed_'
'ken_'
'imbalance_'
'ffi'
'ena'
'ac'
'Bible_'
'preserving_'
'pher'
'peacemaking_'
'impartial_'
'eradicate_'
'ballot_'
'Line_'
'Gran'
'sizes_'
'pes_'
'oto'
'novels_'
'hammer_'
'gor'
'download_'
'blowing_'
'bing_'
'Various_'
'Sat'
'safer_'
'ons'
'cellular_'
'brutal_'
'ache_'
'Water'
'Qua'
'Long'
'ET'
'vitality_'
'sly_'
'owns_'
'overnight_'
'earth'
'cycles_'
'NS'
'unsu'
'stre'
'steep_'
'renew_'
'killer_'
'hollow_'
'gan'
'GR'
'Francisco_'
'92'
'82'
'lane_'
'go'
'Nas'
'Armed_'
'usi'
'tag_'
'stole_'
'rti'
'rf'
'restriction_'
'lie'
'enforced_'
'Ros'
'Mad'
'IR_'
'Hen'
'Always_'
'Age_'
'poured_'
'plight_'
'league_'
'fare_'
'cameras_'
'bath'
'abi'
'Ve'
'Fan'
'Daily_'
'1983_'
'rela'
'rein'
'pathogen'
'nne'
'mint'
'interviews_'
'fence_'
'bureau_'
'Panama_'
'workplace_'
'panels_'
'mol'
'impe'
'em'
'downturn_'
'dness_'
'decolonization_'
'contradiction_'
'attraction_'
'Thi'
'Point_'
'uk_'
'riti'
'profitable_'
'passport_'
'nominated_'
'heated_'
'clause_'
'canal_'
'Qa'
'terminate_'
'lust'
'insecurity_'
'class7_'
'template_'
'pt'
'bullet_'
'assurances_'
'TR'
'Hum'
'survived_'
'postponed_'
'las'
'ep'
'arose_'
'Emperor_'
'Clo'
'63'
'trusted_'
'returnees_'
'rad'
'put'
'incredible_'
'fleet_'
'eco_'
'cum'
'catching_'
'UNI'
'Researchers_'
'Pil'
'Citigroup_'
'Charlie_'
'summarize_'
'reasoning_'
'pour_'
'pants_'
'sewage_'
'ridge_'
'knees_'
'bloody_'
'Xiao_'
'Rice_'
'PLA_'
'Death_'
'troubles_'
'refined_'
'mini'
'hunt_'
'grief_'
'ghts_'
'ess'
'ema'
'batch_'
'backs_'
'Sign'
'Progress_'
'straw_'
'resumption_'
'literally_'
'Reaffirms_'
'Mexican_'
'BM'
'1960_'
','
'worrying_'
'Xinhua_'
'Green'
'ventures_'
'simulated_'
'rne'
'presenting_'
'openly_'
'inclined_'
'disseminate_'
'cere'
'Lama_'
'54'
'”, _'
'variations_'
'uranium_'
'segments_'
'rust'
'responsive_'
'placement_'
'maximize_'
'infringement_'
'Sul'
'Media_'
'Macedonia_'
'Lu_'
'Excellency_'
'retro'
'reproduction_'
'rabbit_'
'oy'
'ils_'
'dozens_'
'decentralization_'
'contracted_'
'IO'
'Bearing_'
'torn_'
'poll_'
'counted_'
'casual_'
'accelerating_'
'Together_'
'Scheme_'
'outdoor_'
'mad'
'litigation_'
'lee'
'laughing_'
'enzyme_'
'duly_'
'curtain_'
'assign_'
'acqui'
'Io'
'By'
'usa'
'trips_'
'symptom_'
'subt'
'spin'
'sensible_'
'optional_'
'mac'
'lus'
'loyal_'
'lac'
'hra'
'fraction_'
'finances_'
'disorders_'
'arm'
'Cast'
'poison_'
'pem'
'gram_'
'Framework_'
'warrant_'
'unlawful_'
'timber_'
'sec'
'mon_'
'lum'
'hur'
'blew_'
'Rub'
'PB'
'Museum_'
'Hoc_'
'Especially_'
'86'
'suspects_'
'renal_'
'patrol_'
'odds_'
'containers_'
'GE'
'Airport_'
'reunification_'
'collar_'
'Prosecutor_'
'vain_'
'ural_'
'scales_'
'pledges_'
'kers_'
'indirectly_'
'gh'
'brake_'
'activated_'
'Resolution_'
'PRESIDENT_'
'ND'
'transplantation_'
'similarly_'
'pulmonary_'
'glut'
'dor'
'cultivate_'
'cooked_'
'clarity_'
'Elizabeth_'
'Dist'
'Best_'
'xia_'
'shocked_'
'privilege_'
'headache_'
'freezing_'
'erne'
'cats_'
'Namibia_'
'0'
'rhythm_'
'monkey_'
'logistical_'
'ise'
'ink'
'formerly_'
'extra'
'eter'
'dece'
'Susan_'
'Nordic_'
'Ly'
'Ii'
'Dear_'
'wheels_'
'upt'
'photographs_'
'inches_'
'dge'
'OU'
'93'
'102_'
'my'
'inc'
'govern_'
'fic'
'ella'
'consume_'
'citizenship_'
'Sor'
'Fat'
'unti'
'rid'
'mysterious_'
'intolerance_'
'ick_'
'dre'
'drainage_'
'dig'
'ari'
'Tru'
'Inc'
'Forms_'
'17'
'physically_'
'indoor_'
'illustrated_'
'highlights_'
'fighters_'
'extrabudgetary_'
'ceramic_'
'blind'
'Cro'
'rta'
'interpreted_'
'gre'
'commend_'
'calculations_'
'apples_'
'Practice_'
'CN_'
'premise_'
'persist_'
'ote'
'nodes_'
'nearest_'
'fitness_'
'eg'
'Yellow_'
'Twenty_'
'Country_'
'Ap'
'59'
'wounds_'
'ole'
'misery_'
'hiring_'
'gy'
'Subsequently_'
'workforce_'
'sensors_'
'pharmac'
'mation_'
'loyalty_'
'kal'
'influencing_'
'diffusion_'
'vascular_'
'rot'
'overp'
'nourish'
'lect'
'dropping_'
'disappointment_'
'deliberate_'
'contributors_'
'Wei_'
'UNIFEM_'
'Throughout_'
'Knowledge_'
'Flo'
'lat'
'lan'
'gates_'
'dem'
'delight_'
'cap'
'arch_'
'Sad'
'steering_'
'plu'
'ignorance_'
'expe'
'deteriorating_'
'dairy_'
'Spirit_'
'Fire_'
'Ce'
'swear_'
'neglected_'
'mitigation_'
'grandfather_'
'edi'
'accompany_'
'Lab'
'Commander_'
'Arr'
'veto_'
'mist'
'eva'
'eous_'
'delete_'
'consequently_'
'assuming_'
'arriving_'
'arises_'
'actress_'
'Wor'
'Wan'
'Reports_'
'Reg'
'Mobile_'
'CHAIRMAN_'
'Book_'
'tera'
'subs'
'stack_'
'rounds_'
'reli'
'onic_'
'marginal_'
'ini'
'administer_'
'Teaching_'
'ESCAP_'
'ru'
'lazy_'
'distortion_'
'dia'
'customary_'
'comm'
'LP'
'grip_'
'gods_'
'fruitful_'
'definitions_'
'conditioning_'
'bic'
'af'
'admire_'
'RE_'
'NC'
'EX'
'payable_'
'ngly_'
'mit'
'endeavours_'
'assumptions_'
'Welcome_'
'wastewater_'
'prevents_'
'lightning_'
'fur_'
'fits_'
'diversified_'
'Sin'
'Sierra_'
'Pat'
'proclaimed_'
'opo'
'leap'
'frustration_'
'dom_'
'assa'
'Vis'
'Usually_'
'Hand'
'Click_'
'Carrie_'
'ty'
'tense_'
'runner_'
'rd'
'nch'
'infinite_'
'fe_'
'empowerment_'
'blamed_'
'OL'
'Blood_'
'),_'
'undertook_'
'shaking_'
'rays_'
'platforms_'
'mun'
'hen_'
'ers'
'baseball_'
'Liberian_'
'valuation_'
'smiling_'
'opposing_'
'ibi'
'fuck_'
'commits_'
' + _'
'vent'
'unstable_'
'ula'
'shad'
'rainfall_'
'photograph_'
'envelope_'
'empire_'
'delivering_'
'constructing_'
'cast'
'weakened_'
'upstairs_'
'stir_'
'polar_'
'hot'
'fire'
'backup_'
'Senator_'
'Reduction_'
'Medicine_'
'Ill'
'Bretton_'
'opera_'
'nd'
'germ'
'clu'
'chap_'
'Sam'
'Bin'
'19'
'yt'
'vir'
'rect'
'proteins_'
'ez_'
'constraint_'
'cc'
'Mountain_'
'Lun'
'stand'
'handful_'
'contracting_'
'Were_'
'Ning'
'Ari'
': " _'
'140_'
'pad_'
'mut'
'loc'
'infer'
'hazards_'
'exu'
'democracies_'
'cy'
'Survey_'
'Daniel_'
'Az'
'zu'
'ste'
'releases_'
'lic_'
'hardship_'
'empirical_'
'advocates_'
'shining_'
'ril'
'resettlement_'
'nationalism_'
'horror_'
'guilt_'
'advocacy_'
'adversely_'
'Stri'
'Ji'
'GI'
'Few_'
'ua'
'panc'
'matched_'
'fulfilment_'
'extends_'
'exporting_'
'emperor_'
'bias_'
'adherence_'
'Strong_'
'PH'
'volunteer_'
'uti'
'twentieth_'
'sciences_'
'sap'
'ook_'
'lined_'
'hometown_'
'gall'
'detecting_'
'Follow_'
'Economics_'
'Bolivia_'
'BL'
'switching_'
'respondents_'
'praised_'
'lebih_'
'hun'
'farms_'
'carriage_'
'bubbles_'
'ah'
'Hold_'
'theater_'
'stabilize_'
'specialist_'
'noon_'
'helicopters_'
'garage_'
'cessation_'
'carriers_'
'FD'
'Abs'
'ville_'
'unwi'
'ule'
'shifts_'
'osteo'
'hack'
'Zhou_'
'Music_'
'Ala'
'21st_'
'wears_'
'volatility_'
'trunk_'
'poorly_'
'nic'
'road'
'politician_'
'oin'
'jur'
'insight_'
'farmland_'
'blanket_'
'artillery_'
'appropriation_'
'Kun'
'Gates_'
'Bao'
'waist_'
'san'
'plan'
'oned_'
'ller_'
'evolving_'
'collision_'
'attainment_'
'Fo'
'Cases_'
'57'
'slave_'
'meta'
'con'
'acoustic_'
'RM'
'tar_'
'keyboard_'
'iv_'
'gang'
'cree'
'condemn_'
'Sau'
'priest_'
'judged_'
'fatal_'
'dial_'
'cooperating_'
'awaken'
'MIN'
'reorganization_'
'prayer_'
'ography_'
'ix_'
'exceeds_'
'ani_'
'Wil'
'Dal'
'Ant'
'Ale'
'oxi'
'nces_'
'ill'
'ere_'
'cliff_'
'allo'
'ageing_'
'Danish_'
'Brazilian_'
'vocabulary_'
'thy'
'likewise_'
'certified_'
'bed'
'Nov'
'MD'
'terr'
'suck'
'prof'
'pers_'
'ox_'
'eness_'
'ecology_'
'charming_'
'burg_'
'UNOPS_'
'Saharan_'
'Ia'
'Hill_'
'Earlier_'
'BP_'
'upcoming_'
'slum'
'mu'
'gauge_'
'awful_'
'Up'
'Indonesian_'
'policeman_'
'gon_'
'discretion_'
'dial'
'cigarettes_'
'Iron_'
'Barr'
'symbols_'
'successes_'
'rl'
'midst_'
'dragon_'
'dense_'
'Select_'
'EC_'
'103_'
'wha'
'trucks_'
'scanning_'
'mortgages_'
'ja_'
'idle_'
'chari'
'bol'
'Lincoln_'
'90'
'tariffs_'
'starch_'
'insulation_'
'foremost_'
'finger'
'eye'
'acu'
'Van'
'Depression_'
'де'
'wheel'
'throwing_'
'side'
'quoted_'
'licensing_'
'interpret_'
'LE_'
'Index_'
'CON'
'Ai'
'translat'
'township_'
'stin'
'rust_'
'retreat_'
'premature_'
'postal_'
'eg_'
'cinema_'
'Mur'
'05_'
'! "_'
'teri'
'tastes_'
'ou_'
'metabolism_'
'manipulation_'
'lawsuit_'
'fostering_'
'controversy_'
'consumed_'
'Set'
'pork_'
'nable_'
'inviting_'
'invalid_'
'cos'
'carb'
'Ram'
'Nin'
'Lanka_'
'Establishment_'
'uta'
'uen'
'tahun_'
'subparagraph_'
'pat'
'manners_'
'foolish_'
'exported_'
'disclosed_'
'defeated_'
'broo'
'104_'
'ue'
'pay'
'div'
'camp'
'ail'
'Zambia_'
'Thai_'
'Tea'
'Stor'
'Malta_'
'62'
'53'
'warmth_'
'tee'
'reforming_'
'powered_'
'ose'
'ome'
'neo'
'defines_'
'cyto'
'baggage_'
'Ak'
'AP_'
'wanting_'
'ose_'
'motive_'
'fiction_'
'din'
'cute_'
'age'
'Yi_'
'Syn'
'Stu'
'Organizations_'
'Merrill_'
'Key_'
'Independence_'
'Fall'
'ym'
'recalls_'
'modules_'
'communist_'
'circum'
'advocated_'
'BU'
'） _'
'unchanged_'
'systemic_'
'nous_'
'loses_'
'lings_'
'licenses_'
'kine'
'wor'
'underlined_'
'sat'
'sab'
'ques_'
'insect_'
'hitting_'
'gal'
'ert_'
'cough_'
'cin'
'blessing_'
'Show_'
'Rat'
'EF'
'180_'
'space'
'ppe'
'mant'
'long'
'livelihood_'
'ised_'
'frameworks_'
'coin_'
'cara'
'abu'
'CE_'
'61'
'slice_'
'rb'
'preparedness_'
'Session_'
'Blair_'
'prescription_'
'nte'
'fox_'
'dere'
'candy_'
'Not'
'Mid'
'son'
'relics_'
'ode'
'lan_'
'elu'
'blu'
'Help_'
'Defence_'
'smo'
'sip'
'mme'
'ication_'
'--'
'surrender_'
'salad_'
'neighboring_'
'magnificent_'
'hearted_'
'ete'
'bombs_'
'atory_'
'win'
'rests_'
'positioning_'
'paths_'
'fies_'
'Wal'
'TA_'
'Imp'
'Front_'
'Communication_'
'touching_'
'tended_'
'serial_'
'potato_'
'pertinent_'
'lo_'
'intake_'
'Workers_'
'Fine_'
'Auditors_'
'vegetation_'
'vacancy_'
'tional_'
'rn'
'oma'
'nest_'
'lati'
'free'
'dic'
'cro'
'Kat'
'Gor'
'Gan'
'Bear_'
'201'
'shu'
'indexes_'
'fu_'
'esteem_'
'augment'
'aiming_'
'Patent_'
'Empire_'
'''_'
'wle'
'tail'
'mela'
'hind'
'DD'
'Customer_'
'xu'
'nurses_'
'midnight_'
'keepers_'
'jan'
'ion'
'fundamentally_'
'dou'
'cousin_'
'cies_'
'Me_'
'Alan_'
'107_'
'liquor_'
'interval_'
'ect'
'aria'
'Ret'
'vein_'
'manpower_'
'iri'
'fog_'
'disappear'
'revisions_'
'compiled_'
'? " _'
'sie'
'gen'
'elephant_'
'consisted_'
'bull_'
'boots_'
'Town_'
'Really_'
'use'
'peng'
'overhead_'
'naval_'
'fs_'
'dynasty_'
'combatants_'
'bits_'
'Works_'
'Who'
'End'
'66'
'woke_'
'versus_'
'tick'
'pus'
'patch_'
'optimized_'
'lively_'
'defending_'
'bottles_'
'TP'
'Mon'
'Emp'
'tract_'
'reform'
'Subs'
'Macau_'
': '_'
'wins_'
'unrest_'
'orm'
'killings_'
'figured_'
'complained_'
'aliens_'
'adhesive_'
'Regi'
'trail_'
'stu'
'recycling_'
'pho'
'mam'
'literacy_'
'colla'
'circuits_'
'Web'
'Paper_'
'Economy_'
' ('
'xes_'
'urd'
'reb'
'plum'
'oro'
'balances_'
'att'
'affordable_'
'UNFICYP_'
'Iv'
'Emb'
'1975_'
'106_'
'successive_'
'shocks_'
'rub'
'mand'
'Pearl_'
'Level_'
'Ear'
'Bre'
'striving_'
'paste_'
'hange'
'deserved_'
'Citi'
'83'
'whe'
'uch'
'ub'
'replacing_'
'remark_'
'fishery_'
'airline_'
'after'
'Simulation_'
'Iceland_'
'DP'
'Alliance_'
'spinning_'
'jar'
'folder_'
'edo'
'cool'
'Yunnan_'
'ECA_'
'Baltic_'
'warmly_'
'unce'
'speedy_'
'prima'
'oba'
'imply_'
'gil'
'Athens_'
'00'
'supermarket_'
'subregion_'
'studio_'
'miracle_'
'lism_'
'lers_'
'fibers_'
'dent_'
'call'
'activists_'
'Yahoo_'
'Plant_'
'Jiang_'
' ) '
'varies_'
'tz'
'sten'
'sheer_'
'sel_'
'sed'
'respiratory_'
'periodically_'
'master'
'hierarchy_'
'detainees_'
'cke'
'cables_'
'bag'
'Mainland_'
'Jamahiriya_'
'FL'
'weird_'
'sman_'
'ric'
'nga'
'insects_'
'harmonization_'
'Spi'
'Mi'
'1st_'
'unpro'
'ffs_'
'exert_'
'dio'
'ate'
'ard'
'Nat'
') '
'wo'
'wee'
'underp'
'subway_'
'set'
'seb'
'realm_'
'poems_'
'pes'
'hap'
'envi'
'educate_'
'dent'
'counsel'
'adviser_'
'Yesterday_'
'1970s_'
'recourse_'
'llo'
'fantastic_'
'endure_'
'ceased_'
'blown_'
'underwater_'
'tch_'
'dream'
'comprise_'
'bending_'
'Ten'
'ICRC_'
'Conventions_'
'Certain_'
'Analysts_'
' - '
'vitro_'
'there'
'superiority_'
'servers_'
'sch'
'reaffirms_'
'mba'
'esti'
'book'
'Things_'
'CU'
'да'
'thanked_'
'sins_'
'shifted_'
'seriousness_'
'rag'
'rable_'
'hoods_'
'hai_'
'ffe'
'ene'
'aboard_'
'Some'
'tect'
'perspectives_'
'monster_'
'kl'
'WH'
'MU'
'Brussels_'
'Angolan_'
'87'
'125_'
'zin'
'resist'
'locate_'
'ito'
'guides_'
'cad'
'awake_'
'Sports_'
'GA_'
'nap'
'ik'
'fet'
'excluding_'
'credits_'
'Rural_'
'Lar'
'Fun'
'nder_'
'likelihood_'
'interdependence_'
'expiration_'
'ew'
'elder_'
'borrowed_'
'ambitions_'
'Draft_'
'thu'
'thermo'
'pipes_'
'mag'
'graduated_'
'floods_'
'Zhejiang_'
'SS_'
'SE_'
'Coal_'
'Aust'
'қ'
'zon'
'tend'
'suspicious_'
'ruct'
'peacefully_'
'mo_'
'dge_'
'bench_'
'aftermath_'
'Arch'
'syn'
'repa'
'prototype_'
'interact_'
'gri'
'demonstrations_'
'ash'
'UNC'
'SL'
'Records_'
'God'
'91'
'predictable_'
'journalist_'
'gla'
'gesture_'
'dispatch_'
'contingency_'
'bad'
'apologize_'
'Tianjin_'
'Rose_'
'Either_'
'ut'
'sexually_'
'nf'
'lessness_'
'clin'
'Eri'
'Antarctic_'
'watercourse_'
'subm'
'regression_'
'pped_'
'pillars_'
'ns'
'infa'
'dim'
'coordinator_'
'caring_'
'UNMIH_'
'Multi_'
'FC'
'veness_'
'utilizing_'
'undermined_'
'strengths_'
'ria'
'rewards_'
'pick'
'ny'
'nest'
'lis_'
'kit_'
'ach'
'Beyond_'
'projections_'
'lur'
'intercept'
'allowances_'
'Racial_'
'Palace_'
'Map'
'Kabul_'
'Cou'
'Ber'
'Abkhazia_'
'pli'
'lent_'
'dialog_'
'Read_'
'Overall_'
'Drugs_'
'Dan_'
'tid'
'subjective_'
'selfish_'
'sadness_'
'ripe_'
'quake_'
'notable_'
'mp'
'hormone_'
'authorize_'
'Fri'
'Find_'
'Disc'
'AN_'
'wicked_'
'unte'
'surprisingly_'
'supper_'
'mic_'
'los'
'flooding_'
'ax_'
'Puerto_'
'Ky'
'sweat'
'plead'
'chairs_'
'celebrated_'
'Yan'
'Price_'
'Presidents_'
'On'
'Entr'
'Ali_'
'religions_'
'lid'
'guaranteeing_'
'aunt_'
'asi'
'ST'
'Lady_'
'Huang_'
'wavelet_'
'ther'
'protesters_'
'machining_'
'lu_'
'longest_'
'hoo'
'foam_'
'ev_'
'downtown_'
'vul'
'terminated_'
'rebuilding_'
'nets_'
'metro'
'lap_'
'enter'
'donation_'
'chips_'
'Sarah_'
'Res'
'Met'
'trauma_'
'strife_'
'persistence_'
'ining_'
'horrible_'
'asi_'
'Sciences_'
'Nearly_'
'Changes_'
'Bri'
'). _'
'spat'
'rity_'
'nto'
'mentally_'
'melt_'
'legend_'
'homeland_'
'companion_'
'asse'
'Roll'
'violates_'
'sunny_'
'sticks_'
'shaping_'
'reversed_'
'ony_'
'oint'
'nomination_'
'metallic_'
'agi'
'Senior_'
'Para'
'MT'
'CC_'
'AF'
'wholesale_'
'tical_'
'ti'
'theft_'
'prisons_'
'popp'
'interactions_'
'im'
'ian'
'footing_'
'attorney_'
'Milan_'
'Fil'
'whi'
'tick_'
'socially_'
'impulse_'
'ean_'
'destroying_'
'denial_'
'ammunition_'
'Cause_'
'yw'
'inspire_'
'inca'
'inalienable_'
'beneficiary_'
'ama'
'Son'
'Relief_'
'88'
'weigh_'
'simplified_'
'settling_'
'peripheral_'
'echo'
'class8_'
'brace'
'bolt_'
'Mine_'
'Investigation_'
'Exp'
'ө'
'vague_'
'tter_'
'thematic_'
'sit'
'prints_'
'mighty_'
'insert_'
'gai'
'dissolution_'
'defendant_'
'correspondence_'
'Ran'
'Buddhist_'
'Access_'
'resi'
'relying_'
'lawn_'
'frightened_'
'ducti'
'Golden_'
'Ade'
'some'
'rip'
'pti'
'peasant_'
'males_'
'escalation_'
'disposition_'
'compilation_'
'compelling_'
'cleaned_'
'brid'
'Tom'
'Regulation_'
'Peoples_'
'Gas_'
'Future_'
'Def'
'scholar_'
'ruin_'
'quota_'
'logging_'
'leap_'
'hypertension_'
'horse'
'geni'
'gau'
'earnest_'
'challenged_'
'Park'
'Ensure_'
'ume'
'soften'
'sition_'
'secular_'
'impunity_'
'eventual_'
'disco'
'brew'
'appealed_'
'accessories_'
'Prize_'
'DM'
'tering_'
'primitive_'
'parks_'
'palm_'
'miserable_'
'heal_'
'females_'
'fame_'
'decreasing_'
'cks_'
'asti'
'aluminium_'
'administrator_'
'ada'
'Student_'
'SW'
'Plu'
'77'
'rei'
'ita'
'indications_'
'honesty_'
'equipments_'
'ae_'
'Val'
'Jamaica_'
'wasted_'
'verbal_'
'stipulations_'
'sses_'
'peni'
'ih'
'hid_'
'disadvantage_'
'deeds_'
'alt'
'alarming_'
'Sel'
'Registration_'
'>'
'са'
'yp'
'wan'
'vicious_'
'ventilation_'
'universality_'
'struggled_'
'rma'
'perpetrators_'
'gig'
'ened_'
'combines_'
'colours_'
'binary_'
'astro'
'amen'
'acceleration_'
'Write_'
'Simon_'
'cles_'
'Snow_'
'spy_'
'scratch_'
'sang_'
'pine_'
'pha'
'exo'
'emo'
'ecosystems_'
'differentiation_'
'Promotion_'
'Areas_'
'58'
'xing_'
'vivid_'
'triumph_'
'poultry_'
'ornament'
'orn'
'inception_'
'declines_'
'bacterial_'
'assembled_'
'acco'
'Stea'
'Kin'
'Der'
'pencil_'
'cart_'
'blue'
'arit'
'Isn_'
'Conf'
'Chair_'
'Add'
'wipe_'
'uf'
'uan_'
'tric'
'sneak'
'sever'
'rus'
'potatoes_'
'oi'
'lowered_'
'illusion_'
'glo'
'exp'
'command'
'aerial_'
'Spe'
'Sli'
'RC_'
'Optional_'
'Mou'
'Indigenous_'
'Happy_'
'valves_'
'pond_'
'flat'
'fibro'
'enduring_'
'eh'
'cancellation_'
'appe'
'amend_'
'Envoy_'
'Cle'
'subst'
'spectacular_'
'shrink_'
'seasons_'
'poisoning_'
'planets_'
'irregular_'
'heli'
'fin'
'cured_'
'contamination_'
'VO'
'Os_'
'Marx_'
'Jun'
'73'
' ,_'
'” – _'
'vow'
'stretched_'
'stiff_'
'sliding_'
'rial_'
'revi'
'quote_'
'mini_'
'mani'
'flatter'
'desires_'
'bb'
'Saint_'
'Creat'
'Command_'
'Camp'
'Buddha_'
'wishing_'
'nai'
'lowering_'
'invi'
'hom'
'ground'
'disadvantages_'
'digit'
'bury_'
'bog'
'bend_'
'appointments_'
'Tokelau_'
'KA'
'Joseph_'
'Break'
'yg'
'ven_'
'hetero'
'dilemma_'
'delighted_'
'computation_'
'az'
'antenna_'
'acids_'
'standardized_'
'rit'
'rians_'
'radi'
'permanently_'
'patron'
'ogy_'
'documentary_'
'contingents_'
'chin_'
'archi'
'Ethnic_'
'AIG_'
'tire_'
'mos'
'kicked_'
'induce_'
'inconsistent_'
'imagined_'
'gambling_'
'expos'
'eng'
'drank_'
'dol'
'cancelled_'
'appro'
'Princess_'
'Imagine_'
'Hoo'
'ESCWA_'
'tha'
'submarine_'
'sen_'
'remainder_'
'hypothesis_'
'grains_'
'dru'
'dominate_'
'deposited_'
'ardi'
'airports_'
'There'
'Southeast_'
'Paulson_'
'Israelis_'
'Hou'
'Edit'
'Dur'
'Cont'
'Communications_'
'Ash'
'Ami'
'190'
'yah_'
'situated_'
'petrol_'
'pairs_'
'laundry_'
'illustrates_'
'ei_'
'coding_'
'TC'
'Fer'
'updating_'
'tern'
'romance_'
'prep'
'omo'
'mass'
'fax_'
'edit_'
'Heat_'
'unlimited_'
'richest_'
'li'
'ign'
'append'
'anchor_'
'Tele'
'Specific_'
'Pal'
'Document_'
'Deng_'
'zoo_'
'uncomfortable_'
'ube'
'summari'
'scored_'
'metry_'
'deaf_'
'curr'
'consolidating_'
'attributable_'
'at'
'Radio_'
'IFOR_'
'HK'
'Effective_'
'DU'
'Buddhism_'
'?'
'ә'
'toe_'
'tang'
'sei'
'pensions_'
'isa'
'athe'
'spr'
'relies_'
'nutritional_'
'fan'
'exhaust_'
'embodied_'
'arrow_'
'ange'
'Patients_'
'Limited_'
'Hat'
'Expert_'
'Dong'
'unk'
'unification_'
'stepping_'
'smallest_'
'ove'
'microc'
'inte'
'ice'
'holdings_'
'gt'
'dot_'
'confronting_'
'authentication_'
'Kid'
'ICA'
'Cri'
'trad'
'slavery_'
'reco'
'paper'
'main'
'iva'
'creditor_'
'claiming_'
'centered_'
'blessed_'
'Statements_'
'Similar_'
'Ser'
'Santa_'
'Rod'
'Machine_'
'JA'
'Encourages_'
'shou'
'pockets_'
'icity_'
'fier'
'communi'
'closest_'
'Was'
'Boo'
'vaccines_'
'importing_'
'cardiac_'
'blocking_'
'Cai'
'And'
'visitor_'
'tops_'
'survivors_'
'spontaneous_'
'questionnaire_'
'pris'
'malnutrition_'
'ive'
'hosting_'
'garment_'
'fitted_'
'explaining_'
'enquir'
'curves_'
'constrained_'
'charging_'
'Tas'
'TU'
'Start_'
'Rea'
'Call_'
'64'
'yi_'
'xe'
'weaken_'
'viruses_'
'ult'
'squeeze_'
'resp'
'refuge_'
'hemo'
'cult'
'architectural_'
'RB'
'Pursuant_'
'Phase_'
'Integrated_'
'Arsenal_'
'72'
'wis'
'tting_'
'shri'
'revolution'
'ole_'
'mala'
'eate'
'disturbance_'
'Wat'
'Socialist_'
'Shi_'
'Od'
'OR_'
'Forest_'
'Andrew_'
'strains_'
'stati'
'sna'
'possesses_'
'lag'
'incoming_'
'gia'
'eful_'
'developer_'
'cine'
'Wo'
'VE_'
'Good'
'CA_'
'Appro'
'undi'
'tightening_'
'repression_'
'recruit_'
'manifest_'
'leakage_'
'lacked_'
'invites_'
'glorious_'
'endorse_'
'arena_'
'Procedure_'
'EI'
'Demo'
'viewpoint_'
'tile_'
'sati'
'roc'
'logistic_'
'gem'
'extracted_'
'corre'
'audiences_'
'STA'
'Place_'
'99'
'rh'
'racing_'
'pa'
'nut'
'macro'
'lasted_'
'disastrous_'
'dep'
'circ'
'Bangkok_'
'turbine_'
'subc'
'sickness_'
'pause_'
'organisms_'
'lon'
'lk'
'Shin'
'Shan'
'OD'
'II'
'Doha_'
'Adam_'
'78'
'114_'
'wave'
'prey_'
'mi_'
'meri'
'itu'
'crus'
'compatibility_'
'Owing_'
'NG'
'Leone_'
'Ban_'
'94'
'square'
'rotating_'
'possessed_'
'hle'
'geography_'
'filtering_'
'anci'
'simplicity_'
'remarkably_'
'rebels_'
'ovi'
'oth'
'occupy_'
'gin'
'franc'
'completing_'
'arr'
'airplane_'
'Senegal_'
'Body_'
'Alt'
'（_'
'ran'
'ola_'
'odi'
'observing_'
'ist'
'edges_'
'ak_'
'PE_'
'External_'
'Bro'
'？'
'tti'
'stal'
'rium_'
'insists_'
'hl'
'counts_'
'coated_'
'census_'
'batteries_'
'Swi'
'Rud'
'та'
'ме'
'supervisors_'
'squad_'
'ror'
'practiced_'
'pala'
'norm_'
'itch'
'flux_'
'devo'
'ale'
'Understanding_'
'Hong'
'Cli'
'undergo_'
'symp'
'supreme_'
'solid'
'resembl'
'proto'
'notified_'
'massage_'
'learnt_'
'gastric_'
'endanger_'
'clusters_'
'attacking_'
'angi'
']_'
'Structure_'
'PP'
'ON'
' –'
'ultrasonic_'
'tati'
'strings_'
'nia'
'inland_'
'damp_'
'corrected_'
'bargain_'
'appliances_'
'analysing_'
'Win'
'Twi'
'Rule_'
'McC'
'MC'
'BC_'
', $_'
'rail'
'onis'
'ndi'
'hin'
'gos'
'glucose_'
'desi'
'cervical_'
'bor'
'axial_'
'RT'
'License_'
'Fort'
'Account_'
'1976_'
'yards_'
'unconditional_'
'tranquil'
'supervisor_'
'log'
'fluctuations_'
'cord'
'builds_'
'briefing_'
'advertisements_'
'VE'
'void_'
'unreasonable_'
'unders'
'trou'
'subsidy_'
'sounded_'
'show'
'rese'
'mould_'
'mina'
'lit'
'lid_'
'jam_'
'isi'
'elevator_'
'editing_'
'bilities_'
'Swa'
'Polish_'
'ECOWAS_'
'Develop_'
'urging_'
'stared_'
'souls_'
'sag'
'queue_'
'privately_'
'neuro'
'multic'
'highways_'
'dispatched_'
'curative_'
'Char'
'81'
'tru'
'sealing_'
'jeans_'
'hits_'
'groundwater_'
'fort'
'eve_'
'conductor_'
'Qatar_'
'Op'
'Moon_'
'It'
'Brit'
'115_'
'warnings_'
'sper'
'rm_'
'ots_'
'origins_'
'originated_'
'energetic_'
'bean_'
'Applications_'
'Adoption_'
'uc'
'kindly_'
'geometry_'
'diplomats_'
'Swedish_'
'Nanjing_'
'La_'
'LD'
'transferring_'
'rent'
'receiver_'
'horn_'
'entail_'
'dib'
'cabin_'
'buff'
'ator_'
'antic'
'Gro'
'Friends_'
'trousers_'
'prospective_'
'pant'
'iona'
'intervals_'
'ines_'
'induction_'
'firearms_'
'exc'
'discrete_'
'Net_'
'Mai'
'MA_'
'Hei'
'yer_'
'tus_'
'real'
'pt_'
'militia_'
'inflammatory_'
'incompatible_'
'expo'
'enda'
'bankrupt_'
'UC'
'Speci'
':'
'ке'
'wards_'
'staring_'
'mobilizing_'
'minors_'
'menga'
'interpret'
'goodbye_'
'conceived_'
'clip_'
'attachment_'
'PLC_'
'Kha'
'winners_'
'winding_'
'tissues_'
'reinforcement_'
'protocols_'
'prec'
'ment'
'lled_'
'fli'
'earnestly_'
'drafted_'
'bled_'
'biennial_'
'arguing_'
'Takes_'
'Kh'
'Brad'
'ұ'
'yu'
'ua_'
'tablets_'
'spends_'
'ladder_'
'iss'
'hereinafter_'
'harbour_'
'crim'
'appearing_'
'Fro'
'yl'
'widening_'
'ratios_'
'lob'
'life'
'kat'
'curiosity_'
'countless_'
'comparatively_'
'candle_'
'bands_'
'Problems_'
'Mes'
'MM'
'Gets_'
'76'
'yi'
'unl'
'unco'
'standardization_'
'sk'
'sca'
'relaxation_'
'ior'
'hunter_'
'fau'
'cont'
'cher'
'asp'
'ache'
'Sydney_'
'Sit'
'Outer_'
'LS'
'Ec'
'; "_'
'tia'
'suppression_'
'step'
'retention_'
'reminds_'
'pend'
'kly_'
'hall'
'gum_'
'gers_'
'faithful_'
'expectancy_'
'catalytic_'
'ale_'
'admiration_'
'Test'
'Savi'
'Lor'
'Dom'
'wax_'
'stimulating_'
'pra'
'pigs_'
'microscope_'
'impartiality_'
'ight'
'fresh'
'consultancy_'
'birth'
'Tehran_'
'Resident_'
'QU'
'GM'
'Cs_'
'Antarctica_'
'75'
'unload'
'taxpayers_'
'spark_'
'rebel_'
'ographic_'
'noo'
'mesh_'
'imposition_'
'ic'
'donations_'
'concurrently_'
'con_'
'any'
'Temple_'
'SEC'
'Must_'
'Improving_'
'Fal'
'reminder_'
'imminent_'
'awaiting_'
'Ts'
'Kara'
'Gla'
'85'
'rre'
'portray'
'pier'
'occasional_'
'humble_'
'hopeful_'
'heat'
'convey'
'confer'
'auditor'
'Reading_'
'Lang'
'Half_'
'Create_'
' `'
'revenge_'
'physiological_'
'opa'
'neighbour_'
'nary_'
'hn'
'ham'
'gni'
'ds'
'deficiencies_'
'decreases_'
'collaborative_'
'classmates_'
'Roman'
'Ox'
'Inner_'
'Diff'
'Channel_'
'roses_'
'ores'
'ner'
'iar'
'evolve_'
'dye_'
'depict'
'com'
'airf'
'Edward_'
'wrap_'
'works'
'spo'
'patri'
'outlet_'
'obey_'
'ket_'
'gi_'
'gge'
'fried_'
'evolutionary_'
'centralized_'
'broaden_'
'bei'
'Greater_'
'Arts_'
' ... _'
'solemn_'
'sno'
'skate'
'presidents_'
'nou'
'lav'
'inflammation_'
'imme'
'gala'
'fond_'
'demining_'
'arrives_'
'Spo'
'Personal_'
'App'
'67'
'summarizes_'
'soft'
'polic'
'moreover_'
'lp'
'lobby_'
'faint_'
'cess'
'Kashmir_'
'Ama'
'26'
'.” _'
'traveled_'
'townships_'
'tage_'
'smooth'
'senses_'
'ront'
'regretted_'
'lle'
'labels_'
'hee'
'assumes_'
'Supply_'
'Merc'
'Marc'
'Helen_'
'FO'
'Ci'
'CN'
'BS'
'xenophobia_'
'wan_'
'expend'
'door'
'approving_'
'amongst_'
'Virginia_'
'Pop'
'Gy'
'EE'
'Award_'
'videos_'
'ram_'
'oil'
'murdered_'
'ish'
'financially_'
'detector_'
'chal'
'Whit'
'Son_'
'Judge_'
'Double_'
'Discussion_'
'Af'
'Abe_'
'116_'
'111_'
'symbolic_'
'medication_'
'mato'
'eh_'
'dum'
'crow'
'assignments_'
'aligned_'
'Way_'
'Statute_'
'Organ'
'Amb'
'100'
'ү'
'ues_'
'start'
'rep'
'rapp'
'processor_'
'lakes_'
'eer'
'admir'
'Rain'
'All'
'wives_'
'tolerate_'
'spouse_'
'sob'
'dong_'
'centri'
'archives_'
'Dor'
'69'
'stimulation_'
'pronounced_'
'paramount_'
'mist_'
'kem'
'ener'
'cou'
'ao_'
'Value_'
'Sahara_'
'Conventional_'
'Aim_'
' ‘_'
'é'
'unsustainable_'
'storms_'
'spli'
'sek'
'rch'
'ramp'
'plastics_'
'luc'
'lanes_'
'ende'
'doc'
'biodiversity_'
'bin'
'Savings_'
'Russians_'
'Disp'
'Combat_'
'2013_'
'traits_'
'stadium_'
'sal_'
'quin'
'presently_'
'peril'
'inflows_'
'glow_'
'committing_'
'amb'
'alignment_'
'abdominal_'
'Far_'
'Epi'
'joy'
'hir'
'deviation_'
'Tian'
'Sui'
'Mis'
'Home'
'tribal_'
'rab'
'proportions_'
'oad'
'numb'
'ima'
'gradient_'
'detect'
'corners_'
'cana'
'Subject_'
'May'
'IG'
'Cer'
'1950_'
'! '
'streams_'
'stems_'
'stair'
'stagnation_'
'rra'
'recipe_'
'hostage_'
'hinge'
'exce'
'catastrophe_'
'businessmen_'
'beloved_'
'Tam'
'Spr'
'3rd_'
'um'
'stripe'
'pto'
'partition_'
'neg'
'memorandum_'
'manifestation_'
'linkage_'
'lest_'
'leak_'
'electrode_'
'confine'
'chore'
'chess_'
'bail_'
'album_'
'aero'
'Mean'
'Anyway_'
'98'
'trail'
'statue_'
'regrets_'
'regain_'
'noi'
'joints_'
'forging_'
'fixing_'
'etic_'
'discourse_'
'calibration_'
'bump'
'Wow_'
'Shandong_'
'PAR'
'ODA_'
'www_'
'validation_'
'thereafter_'
'scenarios_'
'ruler_'
'recipients_'
'ming'
'mend'
'kle_'
'hips_'
'collateral_'
'Slovakia_'
'tort'
'sk_'
'fores'
'credentials_'
'cheek_'
'aren'
'OM_'
'Louis_'
'Jin_'
'Fre'
'Brook'
'trem'
'strangers_'
'snu'
'sc'
'retrieval_'
'quotas_'
'ider'
'frustrated_'
'formalities_'
'cardio'
'aus'
'Zhong'
'Top_'
'Bag'
'tici'
'stakes_'
'rendering_'
'oxy'
'oven_'
'kilo'
'fi_'
'envy_'
'enlargement_'
'believing_'
'aa'
'Teachers_'
'List_'
'Arctic_'
'zan'
'yr'
'shing_'
'scen'
'satisfying_'
'rant'
'nan'
'manu'
'lesser_'
'implied_'
'ede'
'belly_'
'adju'
'Merkel_'
'Dri'
'weakening_'
'voluntarily_'
'sharpen'
'ridiculous_'
'pretend_'
'path'
'nol'
'intimate_'
'fine'
'balancing_'
'arg'
'acceded_'
'Spar'
'Secret'
'Promoting_'
'Christians_'
'Assessment_'
'Arthur_'
'specialty_'
'sal'
'battalion_'
'Yao_'
'UNIFIL_'
'Sk'
'Pic'
'Lie'
'Income_'
'Alice_'
'sep'
'min_'
'hesitate_'
'enshrined_'
'divine_'
'dividend_'
'disclose_'
'curtail'
'chase_'
'boot_'
'Tit'
'Summer_'
'Sky'
'Portuguese_'
'Gon'
'DM_'
'' '
'sleeve_'
'sia'
'scal'
'gym_'
'exclude_'
'bou'
'Living_'
'Indi'
'2nd_'
'veg'
'sup'
'repay_'
'repairing_'
'relieved_'
'peculiar_'
'kha'
'instantly_'
'forge_'
'fighter_'
'compassion_'
'bow'
'addiction_'
'RC'
'Navy_'
'Fle'
'Edi'
'ui'
'mother'
'manages_'
'juvenile_'
'itude_'
'frames_'
'dime'
'corridor_'
'abe'
'!'
'spinal_'
'see'
'seated_'
'qi_'
'obesity_'
'linger'
'jumping_'
'imperial_'
'fifteen_'
'endangered_'
'cus_'
'conso'
'UV_'
'TS'
'Rou'
'ONUMOZ_'
'LL_'
'Eth'
'EV'
'Direct_'
'Beth'
'Beck'
'<_'
'wet'
'unst'
'swift_'
'pros'
'participant_'
'ort_'
'oke'
'nickel_'
'multimedia_'
'humidity_'
'house'
'co'
'cell'
'alm'
'accountant_'
'Oxford_'
'Kir'
'Ken'
'speeches_'
'sore_'
'sd'
'scheduling_'
'resonance_'
'precedent_'
'polls_'
'och'
'nni'
'mir'
'formali'
'compelled_'
'capsule_'
'His'
'Donald_'
'Arms_'
'68'
'yon_'
'uin'
'suffers_'
'hub_'
'Xu'
'Hunan_'
'Accounting_'
'ар'
'wage'
'teaches_'
'sus_'
'padd'
'oning_'
'miss'
'ingredient_'
'illi'
'Ter'
'Isa'
'Gin'
'Germans_'
'wrinkle'
'updates_'
'tumors_'
'thumb_'
'stays_'
'shirts_'
'sac'
'regulator_'
'ong'
'llow'
'incumbent_'
'implicit_'
'igu'
'iba'
'duc'
'dental_'
'corn'
'bug_'
'bitch_'
'UNTAC_'
'Stay_'
'Est'
'undergone_'
'service'
'protectionism_'
'light'
'inl'
'disruption_'
'amounting_'
'altitudes_'
'ade'
'Sal'
'Mol'
'MB'
'Kr'
'IBM_'
'Failure_'
'Democracy_'
'safe'
'rol'
'ppo'
'peer_'
'obi'
'margins_'
'jar_'
'gam'
'fur'
'aran'
'Stephen_'
'OT'
'Jan'
'Certificate_'
'Base_'
'350_'
', [_'
'unta'
'stalk'
'racist_'
'printer_'
'overtime_'
'ous'
'kit'
'ison_'
'injustice_'
'fel'
'feat'
'boosting_'
'Stone_'
'Single_'
'Remove_'
'Colonel_'
'val_'
'unite_'
'tta'
'polite_'
'mene'
'ification_'
'empti'
'bati'
'Gordon_'
'Es'
'venue_'
'melting_'
'hem'
'famine_'
'cis'
'Uzbekistan_'
'Thousands_'
'112_'
'stating_'
'spur_'
'pyr'
'lovers_'
'lou'
'iga'
'heroes_'
'heed_'
'frog_'
'float_'
'digging_'
'convers'
'chaired_'
'Millennium_'
'Aristide_'
'. - _'
'viability_'
'searched_'
'ost'
'osa'
'nity_'
'lenders_'
'impede_'
'flam'
'energies_'
'dan'
'chasing_'
'bee_'
'ast'
'analy'
'ake'
'Chen'
'CHA'
'ла'
'urine_'
'turnover_'
'smuggle'
'reel'
'prophe'
'propagation_'
'disparities_'
'cracks_'
'cati'
'animation_'
'Walk'
'Van_'
'Units_'
'Import_'
'Chris_'
'Alex_'
'186'
'websites_'
'vent_'
'surveyed_'
'ranked_'
'publi'
'physi'
'ordina'
'motives_'
'mall'
'lightly_'
'kan'
'insulin_'
'frank_'
'excellence_'
'enact_'
'concessions_'
'boiling_'
'appraise'
'Wr'
'Wel'
'Sche'
'IB'
'Element'
'projection_'
'nst'
'nominal_'
'du_'
'STE'
'stipulates_'
'pol'
'morphology_'
'histo'
'ats_'
'acet'
'Rein'
'RS'
'Ps'
'Jian'
'Inf'
'Die'
'Bun'
'1000_'
'tut'
'soaring_'
'sailing_'
'priced_'
'practise_'
'pod'
'photography_'
'paw'
'nails_'
'loudly_'
'lact'
'impa'
'dun'
'counselling_'
'comfort'
'blend_'
'batt'
'Spa'
'Nonetheless_'
'NO_'
'Light'
'yd'
'uro'
'ulous_'
'tization_'
'thal'
'supplying_'
'splendid_'
'piling_'
'ph_'
'pers'
'influenza_'
'farther_'
'coexistence_'
'add'
'accepts_'
'Zo'
'Tower_'
'SR_'
'Guide_'
'Cur'
'Cham'
'Banks_'
'. [_'
'unwilling_'
'sponsoring_'
'sic'
'sb'
'programmed_'
'oun'
'muc'
'icon_'
'get'
'disturbed_'
'dealer_'
'aspiration_'
'absurd_'
'Years_'
'Shari'
'Documents_'
'Arbitration_'
', ” _'
'wells_'
'sound'
'liv'
'lap'
'evaluations_'
'disagree_'
'dear'
'bat_'
'armaments_'
'accent_'
'Yang'
'Short_'
'RS_'
'Leave_'
'Bring_'
'sour_'
'rte'
'rge'
'reassur'
'gs'
'foreseen_'
'fashioned_'
'faction_'
'exhibit_'
'disp'
'departed_'
'cata'
'amo'
'allot'
'TS_'
'NGO_'
'Marxism_'
'AA'
'97'
'yo'
'ude'
'towel_'
'smell'
'roof'
'portable_'
'ock_'
'multip'
'mpi'
'molecule_'
'mera'
'lik'
'has'
'fal'
'fairy_'
'ewa'
'clon'
'Travel_'
'Personnel_'
'Heaven_'
'Freddie_'
'unit'
'shells_'
'seekers_'
'pru'
'polyp'
'pac'
'nde'
'infants_'
'evacuation_'
'discharged_'
'cour'
'ME_'
'Link'
'Kho'
'ION_'
'Housing_'
'Hague_'
'Conver'
'Appeal_'
'yarn_'
'ther_'
'sky'
'sensation_'
'rum'
'polling_'
'ount'
'mr_'
'lag_'
'infantry_'
'dai'
'coronary_'
'chloride_'
'cate_'
'broker_'
'big'
'UNTAES_'
'Say'
'Medi'
'Carl'
'upl'
'tier_'
'terrain_'
'sculpt'
'poorer_'
'mega'
'ever'
'eti'
'esa'
'Wolf'
'Communi'
'upright_'
'slic'
'rus_'
'revise_'
'pref'
'performs_'
'ek'
'boiler_'
'Yun'
'Typ'
'Rand'
'Procuratorate_'
'voter_'
'tle'
'tighten_'
'surroundings_'
'procession_'
'oll'
'multipl'
'desktop_'
'charter_'
'boli'
'acquiring_'
'Um_'
'Reuters_'
'Issues_'
'Chongqing_'
'wit'
'violating_'
'shadows_'
'cture_'
'utili'
'twist_'
'ood_'
'hospitality_'
'fork_'
'compile_'
'atoms_'
'ap_'
'ambi'
'Jie'
'Hay'
'GIS_'
'Ch'
'Aligned_'
'withdrew_'
'transported_'
'sperm_'
'robber'
'rang_'
'overcoming_'
'menu'
'gallo'
'fasten'
'expose_'
'execut'
'ell'
'ann'
'OC'
'Manchester_'
'Free'
'Cam'
'utter'
'ull'
'tot'
'resu'
'prevalence_'
'outs'
'lil'
'graphs_'
'cond'
'aha'
'administrators_'
']._'
'Parents_'
'welcoming_'
'torque_'
'suppress_'
'submitting_'
'sr'
'pseudo'
'point'
'pass'
'instructi'
'goodness_'
'gaze_'
'forehead_'
'ety_'
'denu'
'convincing_'
'coc'
'byte'
'bea'
'Traffic_'
'Pan_'
'NPC_'
'GU'
'usefulness_'
'sweep_'
'rotor_'
'merchandise_'
'formidable_'
'eco'
'buses_'
'\u _'
'Var'
'Strategic_'
'Malawi_'
'Gas'
';'
'riz'
'remi'
'pipelines_'
'notwithstanding_'
'lengthy_'
'intrinsic_'
'illiteracy_'
'iate'
'enclosed_'
'eb'
'ctions_'
'civilized_'
'app'
'ake_'
'absorbing_'
'Mom'
'Maritime_'
'Fen'
'Assad_'
'rulers_'
'reacti'
'proving_'
'prohibit_'
'fact'
'exemption_'
'dock_'
'diversion_'
'churches_'
'bis_'
'amic'
'acce'
'Speaking_'
'Duc'
'4'
' （_'
'wn'
'viewing_'
'struggles_'
'sofa_'
'scholarship_'
'respecting_'
'resolutely_'
'part'
'gated_'
'counterpart_'
'conco'
'accustomed_'
'Trac'
'Step_'
'Deco'
'... '
'tically_'
'straightforward_'
'orb'
'net'
'la'
'inhibit'
'cep'
'appealing_'
'ancestors_'
'Transfer_'
'Rock_'
'Frank'
'Broad'
'tuberculosis_'
'tore_'
'tm'
'technically_'
'spear'
'slo'
'pera'
'nutrients_'
'nim'
'hereby_'
'generates_'
'derive_'
'crushed_'
'coni'
'accomplishment_'
'Qian'
'Moo'
'Guid'
'Fea'
'Adv'
'('
'', _'
'undermining_'
'resc'
'ratings_'
'preferences_'
'intimidation_'
'forma'
'flare'
'een_'
'drin'
'cook'
'conf'
'bid'
'aur'
'ant'
'Tel'
'Goods_'
'GE_'
'Dragon_'
'Coast_'
'whatsoever_'
'stitch'
'reiterates_'
'rains_'
'mang'
'ject'
'intact_'
'fruit'
'fear'
'Rus'
'Mogadishu_'
'Eritrea_'
'Dynamic_'
'Design'
'Close_'
'Aug'
'Ara'
'199_'
'stop'
'scrutiny_'
'sank_'
'remo'
'ption_'
'pert'
'overb'
'nam'
'graft_'
'fermentation_'
'fa_'
'class'
'api'
'Sing'
'Parti'
'Cour'
'travels_'
'martial_'
'iled_'
'firstly_'
'disciplines_'
'cracking_'
'coherence_'
'businessman_'
'bladder_'
'Kam'
'Hel'
'Bid'
'usion_'
'transient_'
'tel'
'severity_'
'micros'
'initiation_'
'glue_'
'flag'
'depended_'
'decay_'
'consulted_'
'civic_'
'cem'
'Shar'
'NASA_'
'Lam'
'Kyrgyzstan_'
'Form_'
'Bil'
'Barbados_'
' "'
'wording_'
'withstand_'
'urn'
'substrate_'
'spacecraft_'
'restrictive_'
'resignation_'
'plasm'
'pate'
'mia_'
'lace_'
'jer'
'generic_'
'foul_'
'cock_'
'chai'
'brain'
'betray'
'applaud'
'allocations_'
'Whereas_'
'Trial_'
'Shakespeare_'
'Nar'
'Mali_'
'Lynch_'
'Cameron_'
'Bert'
'wil'
'vel'
'purity_'
'ptive_'
'nud'
'insol'
'improper_'
'gly_'
'effected_'
'cked_'
'Xia'
'Seminar_'
'Freedom_'
'Cape_'
'Bac'
'Ah'
'AD_'
'2014_'
' " '
'wag'
'tl'
'ratify_'
'onset_'
'objections_'
'meng'
'inhal'
'illus'
'entrepreneurship_'
'drawings_'
'dispersion_'
'dis'
'cracked_'
'adv'
'West'
'Sei'
'Proc'
'Kal'
'Jon'
'Bell'
'Adopt'
'zl'
'vibrat'
'take'
'slipp'
'sha_'
'reconnaissance_'
'legality_'
'folks_'
'coward'
'bush_'
'arithmetic_'
'answering_'
'accusations_'
'Rap'
'Magn'
'Judg'
'Domestic_'
'Archi'
'xia'
'transforming_'
'simulate_'
'glob'
'ese_'
'ens'
'disinfect'
'bot'
'anae'
'Print'
'Nam_'
'Garden_'
'Eng'
'toast_'
'takeover_'
'sthe'
'renowned_'
'peninsula_'
'lle_'
'lera'
'harbor_'
'gura'
'glu'
'deni'
'connotation_'
'careers_'
'authentic_'
'ample_'
'adolescents_'
'Sher'
'Lat'
'ICSC_'
'Fisher'
'uncon'
'shun'
'repaired_'
'overla'
'impart'
'feudal_'
'ez'
'epti'
'ense'
'ecti'
'coal'
'bloom_'
'ad'
'Yan_'
'Mona'
'Eve_'
'Colo'
'Admi'
'):_'
'wild'
'ress'
'rans'
'quan'
'impro'
'gent_'
'estr'
'emphasizing_'
'JI'
'Gal'
'Am_'
'shan'
'rocke'
'plunged_'
'jewelry_'
'happier_'
'gardens_'
'fortunate_'
'flap_'
'filters_'
'dop'
'cows_'
'conducts_'
'condense'
'UP'
'Coa'
'viral_'
'unan'
'strat'
'shield'
'mp_'
'invaluable_'
'diff'
'Number_'
'Extra'
'п_'
'utilities_'
'towe'
'tax'
'tap'
'sweater_'
'sixty_'
'shuttle_'
'refusing_'
'rear'
'prudent_'
'philosophical_'
'hinder_'
'WO'
'Village_'
'Series_'
'Gre'
'Drag'
'watches_'
'ultrasound_'
'rri'
'inate'
'hostility_'
'hint_'
'edness_'
'detective_'
'crashed_'
'converter_'
'communicated_'
'beg_'
'Toyota_'
'Pierre_'
'Non'
'MAR'
'Contributions_'
'Chai'
'yri'
'stove_'
'redeployment_'
'qualify_'
'oils_'
'fare'
'enrich_'
'decorated_'
'cab'
'Pad'
'Ok_'
'OAS_'
'Farm'
'FS'
'Dav'
'ATION_'
'1977_'
'wires_'
'wash'
'sums_'
'nucleus_'
'impu'
'embarked_'
'burnt_'
'burdens_'
'administrations_'
'YOU_'
'Theo'
'PM'
'Nico'
'LT'
'Already_'
'89'
'ore'
'ond'
'morphi'
'loop'
'lig'
'ich'
'geopolitical_'
'geared_'
'fib'
'drawer_'
'corrections_'
'ci_'
'Rela'
'．'
'”_'
'worlds_'
'unch'
'rich'
'pains_'
'occupying_'
'nate_'
'lux'
'invo'
'hurts_'
'ey'
'downs_'
'condemns_'
'assassination_'
'alternate_'
'albeit_'
'agitat'
'Sir'
'Ship'
'Kath'
'Governmental_'
'Alexander_'
'tray_'
'sweeping_'
'sincerity_'
'replenish'
'reckon'
'profiles_'
'portal_'
'omy_'
'nasty_'
'jewel'
'hosts_'
'ead_'
'championship_'
'ath_'
'Resource_'
'Ree'
'Gl'
'Brea'
'Auto'
'weight'
'subordinate_'
'pepper_'
'penc'
'mination_'
'interviewed_'
'instinct_'
'designate_'
'decree_'
'atro'
'amp'
'acquaint'
'TRA'
'KO'
'Deep_'
'Alp'
'128_'
'wallet_'
'tures_'
'sometime_'
'presentations_'
'overlap_'
'gon'
'gle'
'deflation_'
'buttons_'
'bomb'
'bind_'
'awkward_'
'UM'
'SB'
'Kennedy_'
'Hea'
'well'
'uncertainties_'
'toxicity_'
'tenure_'
'spill_'
'simplify_'
'researching_'
'itation_'
'fab'
'duct_'
'disin'
'clearer_'
'chic'
'blows_'
'arrears_'
'angles_'
'actua'
'Sc'
'Jimmy_'
'Equipment_'
'Congo_'
'Ball'
'versa'
'supervising_'
'steak_'
'simultaneous_'
'rema'
'proxy_'
'osing_'
'malignant_'
'insta'
'handles_'
'goat_'
'generalized_'
'far'
'dy'
'darling_'
'blast'
'Rwandan_'
'Rob'
'Organize'
'Mart'
'Kremlin_'
'Guidelines_'
'FA_'
'Delhi_'
'Dee'
'Ancient_'
'95'
' )'
'trip'
'supplemented_'
'soluble_'
'shouted_'
'overdue_'
'outward_'
'ial'
'disintegration_'
'dil'
'contaminated_'
'coincide'
'Tajik_'
'Eight_'
'Consult'
'Card_'
'Burma_'
'Arusha_'
'AO'
'117_'
'was'
'reproduced_'
'recurrence_'
'oft'
'observa'
'jol'
'imi'
'hil'
'arduous_'
'Standards_'
'Lower_'
'Inside_'
'Indians_'
'Eco'
'Benin_'
'Armenian_'
'unconscious_'
'pretext_'
'pioneer_'
'high'
'airlines_'
'Qin_'
'Chu'
'tubes_'
'soybean_'
'sorties_'
'mereka_'
'kernel_'
'impoverished_'
'guarded_'
'doses_'
'cer_'
'NOT_'
'Guan'
'6'
'unpleasant_'
'tomato_'
'puzzle_'
'perfection_'
'crunch_'
'cave'
'accus'
'Rep'
'Preparation_'
'Nice_'
'Employment_'
'Dow_'
'Cau'
'162_'
'ugh_'
'insured_'
'insur'
'ik_'
'ici'
'gin_'
'auxiliary_'
'asa'
'ame_'
'Sale'
'Politic'
'Kate_'
'205'
'． _'
'transa'
'thunder_'
'sustaining_'
'sew'
'rth'
'proportional_'
'presc'
'nie'
'mart'
'marital_'
'judic'
'ius_'
'gur'
'exa'
'esi'
'embar'
'delegate_'
'commensurate_'
'commen'
'clerk_'
'bold'
'Renminbi_'
'Qaeda_'
'Programmes_'
'Mechanism_'
'Facebook_'
'Embassy_'
'Anything_'
'thereto_'
'stealing_'
'resign_'
'relied_'
'quis'
'ov'
'mic'
'marriages_'
'gog'
'diagnosed_'
'Ty'
'Kor'
'Herb'
'Has'
'Bernanke_'
'ал'
'yearn'
'unpaid_'
'teenagers_'
'rigorous_'
'researcher_'
'ordering_'
'ngu'
'nag'
'mening'
'markedly_'
'embryo'
'dump_'
'dragged_'
'bore'
'am'
'activation_'
'Turk'
'DC'
'Cambridge_'
'Ble'
'vu'
'theoretically_'
'tas'
'sided_'
'seabed_'
'robots_'
'oso'
'maxim'
'iz'
'goodwill_'
'fun'
'floors_'
'deepest_'
'chill'
'cen'
'antibiotics_'
'Ray_'
'Partnership_'
'Lou'
'Gui'
'DE_'
'Comm'
'China'
'3D_'
'sau'
'riv'
'resigned_'
'prospecting_'
'proposing_'
'postpone_'
'ork'
'northeast_'
'narcotic_'
'iest_'
'drastic_'
'determin'
'condemnation_'
'cious_'
'benign_'
'Yong'
'Smo'
'MBA_'
'persuaded_'
'fibre_'
'echo_'
'coco'
'automated_'
'OS'
'Deal'
'tted_'
'temptation_'
'swallow_'
'sunset_'
'stun'
'stan'
'salt'
'reuse_'
'pne'
'passionate_'
'paro'
'pace'
'ograph'
'fabrics_'
'deprivation_'
'cite_'
'certainty_'
'bailout_'
'Purpose_'
'Lithuania_'
'Install'
'Forest'
'Amazon_'
'Advanced_'
'thri'
'sou'
'sol'
'silk'
'scar_'
'pou'
'illa_'
'fus'
'firm'
'ew_'
'dm'
'diagnos'
'devise_'
'calm'
'bombing_'
'aroused_'
'Papua_'
'Palau_'
'Notice_'
'IV'
'Drink'
'Belgrade_'
'zy_'
'unpredictable_'
'seren'
'semester_'
'reversi'
'qi'
'place'
'pet'
'orta'
'lofty_'
'ene_'
'did'
'depress'
'cheat_'
'arrests_'
'XI_'
'Rev_'
'Pai'
'Fire'
'Cos'
'Care_'
'AR_'
'zzle_'
'sus'
'quer'
'pall'
'ozone_'
'offense_'
'nian_'
'mph'
'kg_'
'irreversible_'
'inan'
'grate'
'ghu'
'commence_'
'coh'
'class9_'
'Wilson_'
'VA'
'Stati'
'Cad'
'113_'
'retire_'
'puff'
'mone'
'matic_'
'lungs_'
'ln'
'heels_'
'flor'
'erly_'
'dominance_'
'concentrations_'
'comprehensively_'
'bay_'
'abolished_'
'Taiwanese_'
'Hard'
'Bos'
'zen_'
'wl'
'sancti'
'rick'
'que'
'pumping_'
'jungle_'
'hys'
'gossip_'
'dis_'
'change'
'basement_'
'OSCE_'
'Move_'
'Jobs_'
'Jiangsu_'
'Explo'
'Dou'
'Didn_'
'Chang_'
'Biological_'
'unh'
'trash_'
'stent_'
'oran'
'lis'
'colony_'
'carr'
'bronze_'
'asas_'
'antit'
'acquisitions_'
'abst'
'Thu'
'Step'
'Mini'
'Inv'
'Il'
'Convinced_'
'Ann_'
'Africans_'
'. )'
'zip'
'understandable_'
'typing_'
'pulp_'
'nth'
'line'
'lemon_'
'intra_'
'hed'
'exit'
'embassy_'
'edible_'
'concede'
'borrowers_'
'Wood'
'Rei'
'Primary_'
'Peninsula_'
'Mul'
'Dia'
'Dark_'
'Cond'
'Cath'
'uno'
'sure'
'stic'
'practicing_'
'obstruction_'
'mum'
'miscellaneous_'
'lop'
'iveness_'
'fora'
'firep'
'debtor_'
'cosmo'
'complex'
'cheerful_'
'boarding_'
'belonged_'
'Plan'
'Physical_'
'Neu'
'Material_'
'viscosity_'
'terb'
'table'
'switched_'
'sow'
'sales'
'punch_'
'mable_'
'laugh'
'kilograms_'
'interrupted_'
'frost_'
'form'
'enlarged_'
'dealers_'
'cumulative_'
'arte'
'amine_'
'Valentine_'
'Tai_'
'Supplementary_'
'Pope_'
'Del'
'Any'
'Alg'
'Abd'
'7'
'vocal_'
'undis'
'ula_'
'modifications_'
'kt'
'irrelevant_'
'inefficient_'
'ined_'
'immunization_'
'dreamed_'
'cups_'
'apology_'
'annul'
'Observation_'
'Jeff_'
' : '
'sque'
'refrigerator_'
'ox'
'mu_'
'lic'
'booming_'
'blockade_'
'aster'
'Wave'
'See'
'Rich'
'Identification_'
'Hot_'
'De_'
'throne_'
'tackling_'
'mourn'
'flee_'
'ext'
'chase'
'cares_'
'ately_'
'anth'
'Teacher_'
'Roo'
'Around_'
'Alle'
'79'
'} _'
'won'
'ulation_'
'thea'
'ston'
'questioning_'
'prov'
'fixation_'
'bucket_'
'bili'
'ashamed_'
'architect_'
'aco'
'Verification_'
'Stresses_'
'Fair_'
'Enhance'
'Decision_'
'Andre'
'%'
'stat'
'seasonal_'
'quotation_'
'orphan'
'ico'
'guitar_'
'ffic'
'arti'
'Ninth_'
'Image_'
'Em'
'Budget_'
'20th_'
'yst'
'usti'
'transfer'
'sing'
'rupt'
'ri'
'quo'
'optic_'
'milestone_'
'implication_'
'hro'
'hated_'
'dine_'
'dde'
'Slo'
'Reco'
'Imm'
'FOR'
'Ds_'
'Dil'
'Call'
'Albanian_'
' (  _'
'сы'
'unanimous_'
'ught_'
'travelled_'
'susceptible_'
'supplements_'
'storm'
'spar'
'reactive_'
'peers_'
'nerves_'
'lm'
'inge'
'infringe'
'hurried_'
'hover'
'habitat_'
'energi'
'earthquakes_'
'crane_'
'buck'
'allerg'
'TM'
'Ora'
'Influence_'
'Burn'
'wreck'
'trim_'
'rys'
'prosecuted_'
'predator'
'modal_'
'junk_'
'historically_'
'grim_'
'bored_'
'boil_'
'aw_'
'Zhi'
'SIDS_'
'with'
'tsunami_'
'roid'
'rce'
'rainy_'
'prem'
'plating_'
'pag'
'miners_'
'elect'
'distributing_'
'cular_'
'calories_'
'briefings_'
'Want_'
'Taipei_'
'Sub_'
'Kra'
'yte'
'tarian'
'swelling_'
'shipped_'
'rum_'
'reta'
'ple_'
'nineteenth_'
'methodologies_'
'mati'
'heri'
'genuinely_'
'fragrance_'
'flames_'
'film'
'excel'
'enriched_'
'desperately_'
'bead'
'ave_'
'anticipate_'
'Los'
'HC'
'Conte'
'yal'
'woven_'
'scrape'
'qu'
'py'
'plat'
'perceive_'
'nasal_'
'ip_'
'gd'
'fatty_'
'commencement_'
'bian_'
'alc'
'UNP'
'Tat'
'Reserv'
'Prior_'
'Poli'
'Hil'
'Eff'
'AF_'
'sick'
'secret'
'richer_'
'remedial_'
'pumps_'
'oak_'
'now'
'lb'
'indefinitely_'
'heartb'
'enta'
'ead'
'cker_'
'bers'
'baro'
'Seri'
'Seoul_'
'Retr'
'Norwegian_'
'Georgian_'
'Fannie_'
'DPRK_'
'DB'
'Chil'
'Accords_'
'122_'
'ты'
'semiconductor_'
'phon'
'nge_'
'logo_'
'impre'
'domination_'
'deport'
'cyclo'
'atti'
'arsen'
'ack'
'Sony_'
'Name_'
'Arabs_'
'ра'
'vali'
'unda'
'swiftly_'
'screen'
'renovation_'
'pau'
'motorcycle_'
'mom'
'mistaken_'
'mig'
'lyn_'
'level'
'ina'
'gne'
'folded_'
'flags_'
'beams_'
'barrels_'
'Mont'
'visas_'
'vat'
'unpa'
'unct'
'slash'
'single'
'settlers_'
'sacrifices_'
'procurator'
'orbit'
'medals_'
'incur'
'hypert'
'cant'
'ance'
'Viet_'
'Stressing_'
'Gat'
'1971_'
'*'
'sporting_'
'sighted_'
'rolls_'
'peg'
'peace'
'outb'
'ono'
'episode_'
'clan'
'chaotic_'
'cau'
'astonish'
'Vladimir_'
'Fish_'
'Emi'
'tun'
'tricks_'
'store'
'spotted_'
'shrinking_'
'sandwich_'
'plague_'
'philosoph'
'mop'
'interregional_'
'garlic_'
'elle'
'dreaming_'
'crowds_'
'Guangxi_'
'Chin'
'Boston_'
'worsening_'
'ux_'
'sters_'
'ranges_'
'mita'
'jokes_'
'implements_'
'gull'
'gland_'
'ful'
'etch'
'cm_'
'chen'
'GPS_'
'? -'
'vi_'
'uru'
'robbery_'
'rie'
'reimburse'
'packet_'
'ivi'
'ineffective_'
'fu'
'exterior_'
'enthusiastic_'
'doomed_'
'contraction_'
'alternati'
'Vir'
'Log'
'Facility_'
'Bern'
'202'
'rounded_'
'mai'
'lighter_'
'kins_'
'followers_'
'fold'
'cus'
'craft'
'capitalist_'
'Wind'
'Vietnamese_'
'Off'
'Mir'
'Luci'
'Integration_'
'Establishing_'
'Esta'
'Corre'
'transform'
'tersebut_'
'redress_'
'purse_'
'prosecutor_'
'mulat'
'maternity_'
'honestly_'
'enforcing_'
'dence_'
'commentary_'
'alcoholic_'
'ab_'
'Shel'
'Advancement_'
'verdict_'
'utterly_'
'uan'
'threads_'
'seg'
'pets_'
'oscillat'
'offenders_'
'militari'
'instrumental_'
'fantasy_'
'discourage_'
'buzz'
'ame'
'Relationship_'
'Lao_'
'Hangzhou_'
'DVD_'
'Chap'
'Audit_'
'yearly_'
'similarity_'
'scarcely_'
'prosecutors_'
'proposition_'
'jealous_'
'introductory_'
'env'
'dict'
'cow'
'buys_'
'bowl'
'bil'
'bef'
'bearings_'
'BE_'
'118_'
'schooling_'
'reclaim'
'precipitation_'
'pouring_'
'mons'
'menc'
'greeted_'
'geno'
'esse'
'endeavor_'
'derma'
'condom'
'cheer_'
'bees_'
'aro'
'acupuncture_'
'accredited_'
'accompanying_'
'Choose_'
'tournament_'
'stakeholders_'
'spill'
'purification_'
'potassium_'
'incor'
'ican'
'erin'
'enrichment_'
'earning_'
'dim_'
'depo'
'dat'
'cherish_'
'carved_'
'Straits_'
'Risk_'
'Nik'
'Din'
'264'
'wrist_'
'wic'
'vo_'
'vin_'
'tria'
'tes'
'tered_'
'swap_'
'spreads_'
'slaves_'
'setup_'
'resent'
'poo'
'obsolete_'
'iew'
'exacerbated_'
'constituent_'
'beast_'
'Municipal_'
'GS'
'Engineer'
'Buck'
'Annual_'
'yourselves_'
'wasting_'
'warp'
'standpoint_'
'season'
'rine_'
'retaining_'
'porat'
'pavement_'
'matri'
'mathematic'
'marble_'
'limbs_'
'liberate'
'humili'
'gea'
'forged_'
'finalized_'
'audi'
'aided_'
'Ott'
'Gai'
'Dus'
'Coc'
'wither'
'preten'
'pres'
'preoccup'
'oversee'
'mates_'
'ling'
'ising_'
'exploited_'
'dip_'
'conversations_'
'bust_'
'ankle_'
'HT'
'Einstein_'
'Characteristics_'
'Chan'
'transformer_'
'revive_'
'quarterly_'
'prognosis_'
'meditation_'
'inward_'
'interp'
'eats_'
'destined_'
'contrast'
'consul'
'coe'
'clan_'
'bel'
'antis'
'Wan_'
'Ping_'
'Jil'
'voyage_'
'rie_'
'rete'
'redeploy'
'mentality_'
'interrelated_'
'doll_'
'disregard_'
'dine'
'deta'
'deliberation_'
'db'
'confirms_'
'complete'
'alis'
'Summ'
'MG'
'Interest'
'2020_'
'01_'
'sense'
'otic'
'olive_'
'offender_'
'mal_'
'logically_'
'lagg'
'hampered_'
'feng_'
'favoured_'
'centrali'
'bble_'
'applicability_'
'accidentally_'
'Tea_'
'Shan_'
'Lit'
'GC'
'96'
'135_'
'121_'
'speculative_'
'scourge_'
'proximity_'
'loom'
'instituted_'
'illo'
'homeless_'
'helpless_'
'harmoniz'
'foe'
'exams_'
'elevated_'
'correspond_'
'cass'
'alter'
'Welfare_'
'Soc'
'Prohibition_'
'NC_'
'Materials_'
'Madam_'
'BER'
'tis'
'shout_'
'screens_'
'routinely_'
'par'
'ories_'
'nel_'
'inve'
'icular_'
'ict'
'hobby_'
'gm'
'featured_'
'entr'
'diz'
'deposition_'
'crush_'
'bus'
'breath'
'biomass_'
'Talks_'
'Por'
'Play'
'Pack'
'Feng_'
'á'
'wiped_'
'wid'
'unrea'
'ulti'
'ually_'
'tug'
'tat'
'tari'
'olit'
'lick'
'inspectors_'
'gene'
'evi'
'ese'
'entrepreneurial_'
'endorsement_'
'Trip'
'Guard_'
'Citizens_'
'CO2_'
'170_'
' % '
'supposedly_'
'summon'
'restricting_'
'repent'
'red'
'professors_'
'impl'
'flower'
'eless_'
'contradictions_'
'charts_'
'Uncle_'
'Ever_'
'. -_'
'%)'
'vicinity_'
'traumatic_'
'stamps_'
'seque'
'round'
'quarrel_'
'orch'
'myth_'
'illuminate'
'dug_'
'curse_'
'crank'
'cheng_'
'cardiovascular_'
'bio_'
'Tim_'
'Sna'
'Moses_'
'Inh'
'Gun'
'Chernobyl_'
'unfold'
'uneven_'
'sulfur_'
'sty'
'ret'
'recovering_'
'quot'
'promotional_'
'particular'
'merge_'
'lon_'
'know'
'iron'
'instructed_'
'infrastructures_'
'formulas_'
'featuring_'
'exha'
'disappointing_'
'daz'
'credited_'
'band'
'XI'
'Mass'
'IMIS_'
'Fit'
'Darfur_'
'Corr_'
'Cancer_'
'! " _'
'wei_'
'ribe'
'reconsider_'
'poli'
'phe'
'pale'
'orm_'
'news'
'ml'
'king'
'heavier_'
'ghte'
'generali'
'ester_'
'edit'
'customiz'
'boy'
'banker_'
'Supplement_'
'Mand'
'Lot'
'Instrument'
'Alm'
'”'
'yak'
'sparkl'
'rvi'
'proclaim'
'princip'
'obs'
'neat_'
'lectures_'
'kw'
'kov'
'enlist'
'enic'
'donated_'
'disposed_'
'catalogue_'
'beard_'
'Ul'
'Sus'
'Ou'
'Listing_'
'Lily_'
'Honduras_'
'Getting_'
'Columbia_'
'Christianity_'
'1972_'
'yu_'
'yc'
'whoever_'
'vet'
'vacant_'
'surveying_'
'screw'
'outf'
'nization_'
'mari'
'lethal_'
'gul'
'executions_'
'detain'
'bas'
'Marshall_'
'Kit'
'Ina'
'AIM_'
'65'
'1945_'
'xy'
'vacancies_'
'undergraduate_'
'tude_'
'transcript'
'thirteen'
'tag'
'rug'
'predicting_'
'lows_'
'itt'
'fertile_'
'dwell_'
'disarm'
'dire_'
'dei'
'deferred_'
'conc'
'Winter_'
'Tang'
'Slovenia_'
'Loo'
'Individual_'
'Geno'
'yielding_'
'stabilizing_'
'sav'
'refund_'
'railways_'
'q'
'permeability_'
'mbu'
'inflationary_'
'glad'
'exempt_'
'concise_'
'common'
'coins_'
'Violence_'
'Pon'
'Kl'
'Governors_'
'urable_'
'ura_'
'unb'
'spine_'
'sala'
'sage'
'propell'
'progresse'
'offs_'
'mpl'
'mena'
'insult_'
'incorporation_'
'ila'
'gloves_'
'erra'
'enhances_'
'due'
'deter_'
'deci'
'bod'
'TE_'
'Run_'
'Marr'
'Majesty_'
'Lhasa_'
'119_'
'trust'
'retailers_'
'pain'
'oat'
'nging_'
'negatively_'
'meanings_'
'incorporating_'
'floo'
'diminished_'
'anterior_'
'Xiang_'
'UR_'
'Torture_'
'Pl'
'Mau'
'Hear'
'ы_'
'vari'
'underneath_'
'prope'
'positioned_'
'penny_'
'outright_'
'oscop'
'juris'
'grow'
'forg'
'fiss'
'advantageous_'
'Word_'
'Save_'
'RU'
'Qinghai_'
'Insu'
'Competition_'
'Ame'
' ￡_'
'theirs_'
'revealing_'
'pas'
'participates_'
'nct'
'ione'
'hawk'
'definitive_'
'cand'
'baseline_'
'Xin'
'Wit'
'Tomorrow_'
'Thought_'
'Schools_'
'Lac'
'Cut_'
'BBC_'
'Albert_'
' €_'
'tomb_'
'seizure_'
'prob'
'potent_'
'pare'
'ignorant_'
'gran'
'eto'
'bulli'
'brass_'
'arid_'
'Shanxi_'
'Rico_'
'Infl'
'Golan_'
'FM'
'Delta_'
'Continue'
'Constitutional_'
'Consideration_'
'Catherine_'
'Avoid_'
'waiter_'
'unjust_'
'tori'
'shar'
'sellers_'
'rode_'
'revival_'
'overflow'
'ord'
'merchant_'
'massacre_'
'further'
'figur'
'demonstrating_'
'concludes_'
'carte'
'cache_'
'butterfly_'
'bind'
'Wea'
'workp'
'tones_'
'tine_'
'tablet_'
'quid'
'nutrient_'
'metaphor_'
'max'
'criticize_'
'compares_'
'bile_'
'Present'
'Photo'
'Continu'
'Clean_'
'yo_'
'worthwhile_'
'twisted_'
'tas_'
'suite_'
'snip'
'new'
'necessitate'
'nationalist_'
'inhibitor'
'hail_'
'dissolved_'
'disrupt_'
'content'
'clauses_'
'Repl'
'Path'
'HS_'
'Guy'
'Developed_'
'trun'
'tip'
'socializ'
'sema'
'perceptions_'
'overco'
'moni'
'mana'
'indicative_'
'immo'
'harmonic_'
'gn'
'fortunes_'
'faculty_'
'digit_'
'croc'
'crac'
'contradictory_'
'arc'
'alliances_'
'adapting_'
'Hitler_'
'GATT_'
'CV'
'BH'
'|'
'vel_'
'tailor_'
'styl'
'slim_'
'shi_'
'ruined_'
'rough'
'quet'
'porous_'
'pil'
'overe'
'nightmare_'
'infect'
'incite'
'fem'
'enlarge_'
'eds_'
'ata_'
'Temp'
'Serious_'
'Result_'
'Promote_'
'Live'
'ды_'
'wizard_'
'wad'
'vigo'
'slop'
'sediment_'
'ound_'
'ident'
'guish'
'foll'
'elevat'
'ega'
'cheque_'
'Yangtze_'
'Sunni_'
'Nam'
'villa'
'unavoidable_'
'rockets_'
'regeneration_'
'pursuance_'
'politi'
'ntr'
'ntan'
'len_'
'lament'
'igh'
'extrac'
'detrimental_'
'descriptions_'
'clean'
'bureaucracy_'
'ading_'
'Yea'
'View_'
'Talk_'
'Seeing_'
'RD_'
'Nev'
'Fiji_'
'Ela'
'Dy'
' ---'
'uct'
'supers'
'signal'
'sanction_'
'obedien'
'nus_'
'nose'
'lighten'
'lia_'
'landmines_'
'kas'
'inar'
'iet'
'fru'
'ethanol_'
'dispose_'
'ct'
'captur'
'attend'
'astronom'
'abr'
'Ster'
'Silver_'
'Pho'
'Mist'
'Hung'
'Bab'
'ін'
'yon'
'wand'
'soda_'
'skinn'
'retri'
'ponder'
'magical_'
'juan'
'intestinal_'
'interrupt_'
'frie'
'diving_'
'disturb_'
'coil_'
'accords_'
'ND_'
'Marg'
'DH'
'usher'
'surf'
'stylis'
'ower_'
'ortho'
'misunderstanding_'
'men'
'manifest'
'investigat'
'influx_'
'idiom'
'fundamentals_'
'entries_'
'dista'
'clarified_'
'Soil_'
'Rock'
'Juda'
'Java_'
'Eva'
'Catal'
'Cambodian_'
'09'
'— _'
'ст'
'yielded_'
'whale_'
'web'
'thoughtful_'
'smoke'
'scra'
'san_'
'revitalization_'
'organism_'
'oppression_'
'lun'
'let'
'extremism_'
'emia_'
'dish'
'conceal_'
'complacen'
'border'
'Supervision_'
'Pun'
'Id_'
'Heart_'
'Gala'
'Feel'
'CARICOM_'
'123_'
'xie'
'tize'
'thor'
'sue_'
'spectral_'
'reversal_'
'mell'
'lunar_'
'intentionally_'
'indu'
'ify_'
'iPhone_'
'enci'
'cutter_'
'carna'
'burns_'
'turbulence_'
'tra_'
'spur'
'spelling_'
'pleas'
'oys'
'makeup_'
'kn'
'interven'
'inspected_'
'gaz'
'erg_'
'ena_'
'embraced_'
'bisa_'
'aqua'
'analog'
'UA'
'Occup'
'Observatory_'
'Mountains_'
'Hit'
'Banking_'
'ylene_'
'visibility_'
'vine_'
'truthful'
'token_'
'tion'
'rubbish_'
'pillow_'
'mild'
'mbo'
'itions_'
'ient_'
'hasten'
'forgiveness_'
'dinosaur'
'comparisons_'
'cht'
'cheap'
'ase'
'Wide_'
'Scarlett_'
'PU'
'Ok'
'NN'
'Motor_'
'Marketing_'
'Interior_'
'Dum'
'ute'
'ude_'
'thank'
'scenic_'
'physician_'
'mast'
'eso'
'drea'
'disagreement_'
'appreciates_'
'aforementioned_'
'Supp'
'Saddam_'
'Net'
'Hut'
'Ghali_'
'Century_'
'Azerbaijani_'
'4th_'
'trajectory_'
'scrap_'
'ris_'
'retina'
'problematic_'
'opic_'
'itar'
'industri'
'haunt'
'grave'
'generously_'
'flex'
'dive_'
'ding'
'depths_'
'complied_'
'Surely_'
'Hillary_'
'Desertification_'
'DS_'
'unlock'
'synthesized_'
'sant'
'rrh'
'procure'
'precarious_'
'polluted_'
'overlooked_'
'nt'
'mpe'
'monk_'
'marsh'
'lls_'
'dumb_'
'claw'
'Turn'
'Taylor_'
'Solomon_'
'Rit'
'Re_'
'MINURSO_'
'Description_'
'unsc'
'tack'
'raid'
'plo'
'ped'
'ora'
'investigators_'
'inaugurat'
'imb'
'elbow_'
'deteriorated_'
'curing_'
'correlated_'
'blam'
'authoritarian_'
'airs'
'Thor'
'Prices_'
'Meg'
'GN'
'volcanic_'
'virgin'
'til'
'shorten'
'profoundly_'
'inquiries_'
'hardest_'
'halo'
'grabbed_'
'furt'
'expedite_'
'duplicate_'
'dietary_'
'dictatorship_'
'descent_'
'decomposition_'
'dal_'
'chin'
'alpha'
'Tong'
'Statement_'
'Publication'
'Item_'
'Found'
'But'
'Aware_'
'two'
'tooth'
'temporal_'
'stack'
'rily_'
'pigment_'
'penal_'
'pak'
'org'
'numer'
'kie_'
'heroin_'
'had'
'genc'
'UNITAR_'
'Pressure_'
'OF'
'Hawaii_'
'EN_'
'Autumn_'
'weighed_'
'unfai'
'spokeswoman_'
'rationale_'
'nged_'
'monopoli'
'memo'
'induct'
'eral'
'enc'
'ego_'
'depreciation_'
'dak'
'alu'
'adjustable_'
'UT'
'UL'
'Sil'
'Scott_'
'Mass_'
'Institution'
'Bay'
'ycl'
'ward'
'upside_'
'underline_'
'tena'
'steward'
'skull_'
'rub_'
'petty_'
'penetration_'
'indictment_'
'dislike_'
'diminish_'
'attach'
'armies_'
'anal'
'Participants_'
'Near_'
'Hos'
'Appeals_'
'.)_'
'ydr'
'treats_'
'statistic_'
'power'
'phy_'
'nbsp_'
'injecti'
'indefinite_'
'icle_'
'iP'
'hte'
'feed'
'entrust_'
'curricula_'
'cip'
'cet'
'apologi'
'Probably_'
'NE_'
'Curr'
'Bat'
'Arg'
'Agreements_'
'.._'
'))._'
'victori'
'trustee_'
'textbooks_'
'tempted_'
'shire_'
'prevailed_'
'poisonous_'
'plumb'
'os'
'noisy_'
'judging_'
'integrat'
'igne'
'hag'
'fractures_'
'fluctuation_'
'fascinating_'
'comic_'
'beaches_'
'axi'
'attentive'
'affirmed_'
'Voluntary_'
'Publish'
'Pep'
'Nic'
'Licens'
'Abkhaz_'
'?” _'
'126_'
'yll'
'spoon_'
'seri'
'seals_'
'poll'
'pm_'
'picnic_'
'orga'
'opi'
'misleading_'
'mille'
'labourers_'
'kissed_'
'jeopard'
'husbandry_'
'false'
'defer_'
'cura'
'cohesion_'
'beverage_'
'Xu_'
'WS'
'Daddy_'
'wig'
'uh'
'prevalent_'
'plott'
'magnet_'
'jamm'
'ira'
'inhibit_'
'heightened_'
'gou'
'fore_'
'ethe'
'erupt'
'duo'
'diligence_'
'deplore'
'collections_'
'atrocities_'
'THE'
'Resp'
'Reason'
'PRI'
'Mubarak_'
'Holl'
'viv'
'rebound_'
'offs'
'mon'
'intrigu'
'interf'
'incredibly_'
'gna'
'ept'
'cakes_'
'ascertain_'
'YORK_'
'SF'
'Provides_'
'OPS_'
'Mess'
'Kel'
'Advertis'
'?"_'
''' _'
'sticking_'
'logist'
'indifferent_'
'dle'
'consular_'
'conge'
'asc'
'ari_'
'annexed_'
'andi'
'abad_'
'Work'
'Supplie'
'Pel'
'Pay'
'MRI_'
'Highl'
'Fift'
'Confi'
'vapor_'
'urb'
'uci'
'tant_'
'stain'
'presume'
'nish_'
'nie_'
'medicinal_'
'jog'
'gru'
'geometric_'
'furnished_'
'fashionable_'
'familiari'
'distributor'
'dir'
'chloro'
'aquatic_'
'ambassador_'
'alan'
'ach_'
'Travel'
'Transp'
'Semi'
'Rid'
'Napoleon_'
'Ivoire_'
'Hug'
'Heavy_'
'HU'
'Gad'
'Fried'
'Brun'
'sack'
'reservoirs_'
'radius_'
'progressively_'
'phased_'
'modem_'
'kills_'
'fair'
'eased_'
'depr'
'cruci'
'corrective_'
'compressed_'
'cherry_'
'cente'
'cab_'
'balloon_'
'asthma_'
'angels_'
'admissi'
'abolition_'
'Tal'
'OG'
'Christ'
'157_'
'widow_'
'utter_'
'twin'
'tact'
'southwest_'
'sigh_'
'nate'
'legislature_'
'jaw_'
'iot'
'hoa'
'herein_'
'fines_'
'conveyed_'
'cheeks_'
'cade'
'ala_'
'Super_'
'Prop'
'Phe'
'Dig'
'Active_'
'1960s_'
'veni'
'spl'
'sphe'
'simpler_'
'scru'
'raft_'
'pills_'
'jeopardize_'
'idio'
'healthcare_'
'eig'
'devised_'
'cheating_'
'automotive_'
'UNS'
'UBS_'
'Starting_'
'Prom'
'Procurement_'
'OI'
'NBA_'
'GB'
'Disease_'
'Develop'
'Butt'
'Brian_'
'vibrant_'
'vapo'
'tune'
'trivial_'
'tally_'
'requisite_'
'ren_'
'phrases_'
'opp'
'lump_'
'illustration_'
'ien'
'honored_'
'essing_'
'dred'
'cot'
'cele'
'amino_'
'admits_'
'VP'
'Sai'
'Punishment_'
'Introduction_'
'Cover'
'Cheng_'
'687_'
'ба'
'seventeen'
'second'
'recon'
'polarization_'
'may'
'lei'
'kara'
'irrespective_'
'humankind_'
'grassland_'
'goo'
'dependency_'
'declaring_'
'cue_'
'ctor_'
'bandit'
'athlete_'
'amor'
'Mandela_'
'INSTRAW_'
'Fred_'
'Formula'
'Contain'
'Bit'
'Amy_'
'sack_'
'oms_'
'omp'
'nded_'
'mili'
'lympho'
'incorrect_'
'hly_'
'harus_'
'formats_'
'eyed_'
'devotion_'
'competitions_'
'barg'
'Zhen_'
'Tie'
'Search_'
'Object_'
'Ling'
'Gil'
'FP'
'Correct'
'Connecti'
'wom'
'whirl'
'totalling_'
'symbolize'
'swarm'
'stero'
'spi'
'siege_'
'shes_'
'sey_'
'recap'
'rbi'
'parliament'
'optimizing_'
'oard_'
'needles'
'low'
'look'
'indebted_'
'ike_'
'fil'
'egal'
'cruise_'
'coping_'
'comprised_'
'bul'
'brig'
'ball'
'XXI'
'UE'
'Rum'
'Poll'
'Plus_'
'Ny'
'Mark'
'Important_'
'End_'
'Argentine_'
'Andy_'
'425_'
'yne'
'telecom'
'sli'
'policemen_'
'olin'
'magi'
'lobe'
'joins_'
'invest'
'inst'
'freshwater_'
'external'
'emer'
'collector_'
'checkpoint'
'catastrophic_'
'amin'
'Wha'
'Roosevelt_'
'Moham'
'Hus'
'Fol'
'Establish_'
'Ce_'
'€'
'tte'
'trio'
'sync'
'stuff'
'streamlining_'
'powder'
'persisted_'
'patents_'
'ngs'
'nant_'
'ially_'
'hopefully_'
'fia'
'extr'
'entre'
'denti'
'critically_'
'creep'
'competitor_'
'comb_'
'collo'
'categori'
'cataly'
'births_'
'amplitude_'
'alteration_'
'Zhu'
'Television_'
'Related_'
'Realiz'
'Ps_'
'Mining_'
'Ing'
'Dio'
'zzle'
'zer'
'ylo'
'troubles'
'tour'
'spor'
'sanitary_'
'oz'
'opera'
'nationally_'
'melon_'
'lyric'
'jumb'
'irri'
'illustrati'
'daf'
'cushion_'
'converge'
'coincidence_'
'LIN'
'JIU_'
'Gab'
'Cost_'
'Bow'
'Authorities_'
'Agen'
'ych'
'uate'
'sympathetic_'
'strati'
'salin'
'race'
'icul'
'flooded_'
'descend'
'cognition_'
'coatings_'
'archa'
'Sou'
'PER'
'Kno'
'Interv'
'HR'
'Fox_'
'Easter_'
'Aviation_'
'untr'
'unse'
'suitab'
'stationed_'
'sinking_'
'sceptic'
'overtake'
'organised_'
'onate'
'omni'
'obscure_'
'molding_'
'liness_'
'iy'
'innocence_'
'inflicted_'
'harm'
'gest'
'genus_'
'ferr'
'exile_'
'domin'
'crum'
'bolster_'
'Villa'
'Truth_'
'Petro'
'Gaz'
'Bau'
'tili'
'subprogrammes_'
'stumbl'
'rifle_'
'populated_'
'locking_'
'ips_'
'hello_'
'groom_'
'flash'
'directional_'
'attracts_'
'Mill'
'LC'
'Delegation_'
'Charl'
' "._'
'thrive_'
'superficial_'
'stall'
'sp'
'slump_'
'semantic_'
'sculpture_'
'scripts_'
'rotary_'
'ron'
'residue_'
'releasing_'
'reali'
'practitioners_'
'mercenaries_'
'liberalis'
'lamb_'
'invoice_'
'intro'
'ino_'
'infr'
'heroic_'
'hardness_'
'exporter_'
'expiry_'
'disputed_'
'complication_'
'clos'
'bureau'
'alin'
'View'
'Transform'
'Sali'
'Potter_'
'Heath'
'Floo'
'Et'
'Conferences_'
'Bene'
'Awa'
'138_'
'wonders_'
'where'
'wall'
'taxpayer_'
'stas'
'sexy_'
'profitability_'
'participatory_'
'parade_'
'moderat'
'invoked_'
'editorial_'
'diversify_'
'defender_'
'characteri'
'campaign'
'authori'
'admitt'
'Huang'
'Flower'
'Endo'
'Bang'
'Band'
'Accept'
'weighted_'
'triple_'
'segmentation_'
'runway_'
'reign_'
'quantifi'
'psychologist'
'psi'
'pine'
'perpetrated_'
'off'
'lysis_'
'landmark_'
'indiscriminate_'
'indi'
'identifies_'
'herm'
'headl'
'eleven_'
'ege'
'cta'
'cking_'
'bahwa_'
'appr'
'Xing'
'WMO_'
'Rich_'
'Oa'
'NET_'
'Lim'
'Emirates_'
'Disney_'
'Cart'
'tolera'
'ringing_'
'rested_'
'ott'
'opt_'
'moratorium_'
'jade_'
'irresponsible_'
'inhabit'
'inen'
'ignoring_'
'ibility_'
'gha'
'fills_'
'extinction_'
'discharging_'
'cti'
'chinese_'
'besar_'
'bargaining_'
'Sala'
'Ronald'
'Roa'
'Profi'
'Pass'
'PF'
'Marin'
'Intellectual_'
'Institutions_'
'Fib'
'Down'
'Abraham_'
'zeal'
'unc'
'tum_'
'tres'
'transplant_'
'tram'
'strand'
'scare_'
'registry_'
'recla'
'punch'
'privileged_'
'polyg'
'navy_'
'lad'
'forefront_'
'exquisite_'
'disseminated_'
'chooses_'
'careless_'
'aids_'
'Whi'
'Situation_'
'SC_'
'Principle_'
'Ie'
'Event'
'Consumer_'
'AM_'
'145_'
'widen_'
'variance_'
'ura'
'unexpectedly_'
'thirst_'
'subside'
'snap_'
'revolve'
'regrettable_'
'regi'
'radical'
'preferable_'
'neutrality_'
'multil'
'liga'
'kra'
'invariably_'
'indis'
'gloomy_'
'gallery_'
'fueled_'
'exploiting_'
'ency_'
'conflicting_'
'chemotherapy_'
'brokerage_'
'aya'
'atom_'
'aph'
'Tunis'
'Trademark_'
'Providing_'
'PLO_'
'Kon'
'Fujian_'
'Distribution_'
'syllab'
'steame'
'repres'
'realism_'
'pivotal_'
'perv'
'obst'
'loi'
'loca'
'jian_'
'interfaces_'
'immigrant_'
'gather'
'galaxy_'
'ccu'
'Vanc'
'TB_'
'Sla'
'OPEC_'
'Nazi_'
'Looks_'
'Doo'
'Botswana_'
'Acc'
' , " _'
'、_'
'tribe_'
'technicians_'
'stimula'
'sma'
'schema_'
'recreational_'
'radial_'
'photon'
'nda_'
'migrat'
'evo'
'essive_'
'dete'
'court'
'cartoon_'
'budgeted_'
'brut'
'boot'
'blink'
'Yel'
'Moral'
'Lack_'
'Increased_'
'IMO_'
'Groups_'
'Basin_'
'xy_'
'storing_'
'nced_'
'lak'
'gorgeous_'
'explosives_'
'embarrassing_'
'dera'
'biome'
'assimilat'
'apat'
'Max_'
'JC'
'HN'
'9'
'thir'
'stenc'
'span'
'softly_'
'secretly_'
'rke'
'railroad_'
'qing_'
'phone'
'lied_'
'lel'
'laptop_'
'ica_'
'faint'
'dialogues_'
'conv'
'commenced_'
'browser_'
'armor_'
'Psycho'
'Marti'
'wrong'
'toes_'
'stered_'
'solitary_'
'sessional_'
'scrap'
'pornography_'
'needy_'
'monument'
'mali'
'liner_'
'leuk'
'laboratories_'
'jok'
'insult'
'headlines_'
'grasp'
'erb'
'embarrassed_'
'degrade'
'conven'
'Visit'
'Vale'
'Unc'
'Source_'
'Shang'
'Rig'
'Prepar'
'NM'
'Line'
'Eas'
'Corporate_'
'Agent_'
' ''
'wines_'
'vomit'
'underway_'
'twist'
'tw'
'synchronous_'
'rga'
'precondition_'
'painter_'
'moon'
'lep'
'lade'
'kind'
'hos'
'flake'
'cted_'
'cholesterol_'
'accumulate_'
'Mea'
'Marxist_'
'----'
'youngest_'
'wl_'
'unilaterally_'
'tum'
'soils_'
'resort'
'prick'
'predict'
'orit'
'nom'
'misg'
'loa'
'hurricane_'
'commute'
'brac'
'banner_'
'averag'
'aul'
'arisen_'
'anxi'
'ades_'
'abla'
'Qing'
'Minor'
'Howard_'
'Ful'
'Cav'
'Ado'
'unfavo'
'unequivocal'
'stiffness_'
'spir'
'scarcity_'
'ringe'
'readjust'
'pec'
'par_'
'nurtur'
'inso'
'infan'
'glamo'
'flaws_'
'electroc'
'dust'
'dividends_'
'democratically_'
'cooperated_'
'coast'
'UNCITRAL_'
'Raf'
'Ori'
'Opening_'
'Liaison_'
'Hang_'
'Examples_'
'DA_'
'Chuck_'
'Cher'
'Barb'
'Addis_'
'AV'
'1968_'
' ) ._'
'vor'
'tolerant_'
'tenta'
'taxi'
'rupture_'
'republic_'
'pathological_'
'pair'
'ord_'
'magnesium_'
'hardships_'
'francs_'
'ferment'
'fend'
'fade_'
'erio'
'embe'
'ebo'
'dictate'
'conditional_'
'complementarity_'
'authoritative_'
'Squ'
'Sama'
'Pyongyang_'
'PL'
'Outside_'
'Fran'
'FF'
'Commo'
'AU'
'valent'
'textu'
'textiles_'
'stag'
'reme'
'oge'
'nse'
'nly_'
'generators_'
'gena'
'dic_'
'crystals_'
'coral_'
'contri'
'commissioned_'
'attest'
'Wy'
'Williams_'
'Notwithstanding_'
'Gold'
'Berk'
'Ava'
'ymo'
'toxi'
'supern'
'seduc'
'pret'
'oya'
'nz'
'mort'
'millennium_'
'listen'
'hepatitis_'
'demi'
'commented_'
'brat'
'battles_'
'bandwidth_'
'algebra'
'adm'
'Sab'
'Marriage_'
'Fos'
'Euro_'
'ECLAC_'
'Dang'
'Cun_'
'Chancellor_'
'Animal_'
'Age'
'verse_'
'unspe'
'triangle_'
'stain_'
'solu'
'simplest_'
'mmi'
'marrow_'
'guardian_'
'fast'
'erupted_'
'emis'
'curb'
'coo'
'comprehension_'
'coke_'
'backgrounds_'
'await_'
'South'
'Going_'
'Carr'
'xo'
'uter'
'tene'
'retrospect'
'pinn'
'ocular_'
'mouth'
'millimet'
'intermediary_'
'gant'
'frown'
'fetch_'
'excessively_'
'encl'
'depart'
'contracepti'
'chiefly_'
'caus'
'Somebody_'
'Rot'
'Ord'
'Mart_'
'Less_'
'Extensi'
'withh'
'way'
'warme'
'trademarks_'
'resemble_'
'reflex'
'prising'
'prel'
'opu'
'nch_'
'mont'
'lang'
'icit'
'hurdle'
'hop_'
'hepatic_'
'facet'
'eminent_'
'dwelling_'
'dling_'
'demons'
'cher_'
'chatt'
'build'
'benefiting_'
'bang_'
'athletic_'
'aki'
'Turning_'
'Trading_'
'Milk'
'LA_'
'Cel'
'Bed'
'Barcelona_'
'virtues_'
'traces_'
'substitution_'
'som'
'revo'
'reluctance_'
'recorder_'
'plex'
'omer'
'northwest_'
'modulation_'
'hike_'
'heroi'
'gw'
'ember'
'dispense'
'designation_'
'deem_'
'celebrity_'
'behav'
'adeno'
'Nixon_'
'Innovation_'
'Eg_'
'Coordinat'
'Apply_'
'tertiary_'
'surpluses_'
'snack_'
'rud'
'psychiatri'
'prestige_'
'perta'
'pere'
'overly_'
'oat_'
'nitri'
'near'
'mutation_'
'meteor'
'marvel'
'lib'
'kings_'
'jing_'
'goose_'
'dispersed_'
'discontinue'
'disconnect'
'compounded_'
'code'
'asphalt_'
'ases_'
'Yas'
'XV_'
'Job_'
'Dise'
'Bru'
'Aero'
'wit_'
'telecommunication_'
'synchronization_'
'stockpile'
'springs_'
'sive'
'shelves_'
'scrub'
'rds_'
'preferably_'
'piston_'
'pect'
'overwhelm'
'nati'
'jel'
'ize'
'intellectuals_'
'gal_'
'finest_'
'equals_'
'eman'
'eag'
'distorted_'
'daddy_'
'clue_'
'capt'
'bank'
'ata'
'Well'
'Slav'
'Simple_'
'Rece'
'Host'
'Dick_'
'Controller_'
'Chao'
'Cali'
'wake'
'triumph'
'slot_'
'ritual_'
'rim'
'regr'
'punishments_'
'prosper'
'pore_'
'nano_'
'monst'
'menta'
'meaningless_'
'intensi'
'indifference_'
'hion'
'hectares_'
'deriv'
'cia_'
'ancy_'
'Ukrainian_'
'Tig'
'Than'
'Telecom'
'Projects_'
'Lakers_'
'Improved_'
'Had'
'Art'
'xis'
'video'
'stor'
'retrieve_'
'recalling_'
'rdo'
'posterior_'
'nua'
'maximiz'
'marginalized_'
'lg'
'iring_'
'inse'
'hast_'
'gging_'
'dapat_'
'const'
'communicating_'
'cement'
'aide'
'Wag'
'Railway_'
'Late_'
'Jersey_'
'Ideal'
'GL'
'Fu_'
'Controll'
'Attention_'
'Ababa_'
'wary_'
'via'
'unwa'
'thin'
'stall_'
'sideline'
'schedules_'
'rdi'
'rali'
'practica'
'mall_'
'magneti'
'kilomet'
'interdependent_'
'iling_'
'honoured_'
'cub'
'cac'
'asing'
'annexes_'
'Nine_'
'Hop'
'Chart'
'155_'
'wilderness_'
'vanish'
'vac'
'ust_'
'ulati'
'turbi'
'rede'
'proof'
'onist_'
'nee'
'llary_'
'limb_'
'lf_'
'juncture_'
'isl'
'implant'
'heel_'
'dock'
'dilute'
'dal'
'computerized_'
'compressor_'
'clash_'
'buds'
'Sy'
'Qingdao_'
'Protocols_'
'Prot'
'Mig'
'Aid_'
'revoked_'
'rega'
'overr'
'nonsense_'
'markers_'
'lish'
'disobe'
'cooperatives_'
'ces'
'blic'
'blaze'
'approximate_'
'XP'
'Varia'
'Ine'
'Haw'
'Crime'
'Conservation_'
'129_'
'zhu'
'yea'
'xed_'
'unsol'
'undertakes_'
'stringent_'
'solven'
'searches_'
'roast_'
'recogni'
'plain'
'passion'
'nem'
'naut'
'mble_'
'lal'
'ioni'
'inherit_'
'grams_'
'favour'
'encroach'
'defended_'
'ckle'
'caution'
'bec'
'ars'
'adsorption_'
'Rem'
'Minorities_'
'Mia'
'Kyoto_'
'IX_'
'Greg'
'Ameri'
'08'
'waf'
'vendors_'
'ulo'
'sund'
'stubborn_'
'soared_'
'phosphate_'
'misin'
'gel'
'fourteen'
'communicat'
'bless_'
'Ow'
'Literature_'
'Jing'
'Colla'
'Clar'
'Angela_'
'Alb'
'voiced_'
'ultraviolet_'
'testify_'
'ssions_'
'slag_'
'repos'
'realizes_'
'ranch'
'outli'
'install'
'inactiv'
'heav'
'ggy_'
'flourish_'
'filtration_'
'entails_'
'emigrat'
'drill'
'crawl'
'buddy_'
'bottle'
'bere'
'banana_'
'assay_'
'analog_'
'adalah_'
'abused_'
'Provide'
'Pension_'
'NY'
'Kevin_'
'1965_'
'twins_'
'thorn'
'surfac'
'skip_'
'riso'
'repayment_'
'reap'
'reactors_'
'projecti'
'portrait_'
'pesticides_'
'osh'
'originate'
'nect'
'metallurg'
'lubricant'
'knot_'
'invasive_'
'impress_'
'handy_'
'fin_'
'dwa'
'dee'
'courtesy_'
'correlati'
'conte'
'compar'
'cel'
'bulb_'
'bai'
'adversar'
'\u'
'YA'
'Wait'
'Sid'
'Physic'
'Jintao_'
'Evi'
'EST'
'Blan'
'umo'
'treasury_'
'theolog'
'steadfast'
'shalt_'
'quadr'
'preclude'
'pal'
'methane_'
'litho'
'intersect'
'incapable_'
'hes'
'fluori'
'crea'
'convert'
'bir'
'allu'
'alloys_'
'alli'
'Northeast_'
'Nec'
'Impr'
'Film_'
'Clu'
'Cardi'
'Cap_'
'Bud'
'Automatic_'
'Asse'
'Abr'
'450_'
'132_'
'vs_'
'truc'
'tentative_'
'singular_'
'shortfall_'
'shipments_'
'respectful'
'pled'
'oversee_'
'myc'
'mind'
'magnet'
'lays_'
'intern'
'ias'
'harden'
'feast_'
'esophag'
'discoveries_'
'cani'
'billi'
'aj'
'addendum_'
'accelerat'
'ables_'
'Zhu_'
'Victoria_'
'Processing_'
'Introduce'
'Herm'
'Fight'
'Easy_'
'Chad_'
'127_'
'vested_'
'ulc'
'theorem_'
'tales_'
'strata_'
'specifies_'
'recreation_'
'posture_'
'fut'
'flop'
'extremists_'
'edd'
'droo'
'distract'
'creep_'
'appendix_'
'aliz'
'affiliate'
'Shou'
'Restor'
'OM'
'Montreal_'
'Luo'
'Limit'
'Land'
'vous_'
'urn_'
'terribly_'
'spon'
'scoring_'
'rna'
'restrain_'
'ression_'
'rack_'
'predictions_'
'phat'
'loneliness_'
'harge'
'generosity_'
'dolphin'
'cone_'
'associates_'
'Zen'
'Ted_'
'Rom'
'Ris'
'Parad'
'Nep'
'Med'
'Gibraltar_'
'Clark_'
'141_'
'  ) _'
'vil'
'vertebra'
'trader_'
'ths_'
'pengu'
'imagin'
'grease_'
'grad'
'footprint'
'foil_'
'exclu'
'excavat'
'ewe'
'equa'
'cons'
'commanders_'
'certify'
'bourgeois'
'aru'
'anis'
'YO'
'Tech'
'TL'
'Resistance_'
'Abe'
'  ( _'
'і_'
'~'
'tuition_'
'tate_'
'subtract'
'steer_'
'spora'
'sent'
'rance_'
'qualif'
'populist_'
'needing_'
'inct'
'herbs_'
'halve'
'exempted_'
'dresses_'
'ditch_'
'disrupted_'
'courageous_'
'collaborate_'
'carbonate_'
'boom'
'authoriz'
'Thin'
'Range'
'Mid_'
'Lands'
'CW'
'Anne_'
'volcano_'
'sse_'
'righteous_'
'redirect'
'reconcile_'
'pizza_'
'oss'
'mous_'
'mate'
'inqui'
'god'
'fort_'
'exi'
'eme'
'cred'
'clinics_'
'clai'
'carbon'
'best'
'awesome_'
'anytime_'
'admired_'
'Present_'
'Lian'
'Gos'
'Colonial_'
'Baby_'
'zo_'
'weekends_'
'traveler_'
'toni'
'thieves_'
'rigi'
'residing_'
'reci'
'media'
'indices_'
'fence'
'denying_'
'cott'
'coloured_'
'brillian'
'bribery_'
'asso'
'acre'
'Sac'
'OIC_'
'Normal_'
'Fuku'
'Facilit'
'ECO'
'Combined_'
'Cameroon_'
'COP'
'Arti'
'Amo'
'uniformity_'
'tanta'
'retra'
'mutati'
'mobilized_'
'mamma'
'll'
'lasts_'
'hea'
'gob'
'genesis_'
'enchant'
'distances_'
'dist'
'depart_'
'complic'
'comedy_'
'chromatography_'
'bby_'
'Vin'
'Top'
'RP'
'Enc'
'ENT_'
'Course_'
'Bad_'
'5th_'
'ле'
'unusually_'
'tyre'
'tutor'
'transplant'
'too'
'tau'
'sulf'
'secrecy_'
'retard'
'prosecute_'
'privati'
'philosopher_'
'phenol'
'pene'
'operati'
'mpo'
'meni'
'hemi'
'fou'
'evenly_'
'chromat'
'Unif'
'Sensi'
'NT_'
'Meetings_'
'Ken_'
'Iso'
'Hebei_'
'Djibouti_'
'Day'
'BA_'
'қ_'
'yeast_'
'weighing_'
'vert'
'tenant'
'surgeon_'
'spoil'
'sher'
'ruins_'
'relocate'
'rectification_'
'mea'
'laya'
'lass_'
'into'
'insights_'
'igen'
'iers_'
'hal_'
'escen'
'encode'
'distr'
'demise_'
'councils_'
'badge'
'atau_'
'aggravated_'
'Ever'
'Date_'
'Chengdu_'
'Bright'
'02'
'"?_'
'ysis_'
'vez_'
'uria'
'toxin_'
'surviv'
'sprinkle'
'soa'
'rescued_'
'port'
'outlets_'
'modernis'
'licensed_'
'hoot'
'generals_'
'fallo'
'del_'
'curved_'
'canoe'
'boosted_'
'awa_'
'Tim'
'Recommends_'
'Joan'
'Hundreds_'
'Ho_'
'124_'
'west'
'tidy_'
'southeast_'
'shark_'
'refu'
'redundant_'
'psychotropic_'
'premier_'
'peaks_'
'overh'
'nc'
'mat_'
'locks_'
'hang'
'explores_'
'embo'
'doubl'
'detonat'
'browse'
'arch'
'affirm'
'advent_'
'Silicon_'
'RR'
'Pou'
'Oversight_'
'Lisa_'
'Know_'
'Bart'
'240_'
'vase_'
'unresolved_'
'trench'
'tract'
'sw'
'streamline_'
'saw'
'sang'
'popularization_'
'petition_'
'nical'
'ldn_'
'last'
'kong_'
'ire'
'hydrocarbon_'
'hing'
'glimpse_'
'fly'
'empowered_'
'eighteen_'
'dismay'
'decen'
'crown'
'chuan_'
'bra_'
'appropriations_'
'Techni'
'Persi'
'Mandarin_'
'KI'
'Conditions_'
'CONCLUSION_'
'wei'
'unequal_'
'turbulent_'
'rhe'
'replace'
'redeem'
'rationalization_'
'perce'
'occupan'
'nal'
'maize_'
'lender_'
'interpersonal_'
'gloss'
'egi'
'ective'
'earmarked_'
'eagle_'
'dialectic'
'conceal'
'compliment'
'backdrop_'
'applause_'
'UG'
'Thirty_'
'Shr'
'Le_'
'Foo'
'Fixed_'
'Dela'
'Capit'
'Accu'
'vine'
'vale'
'uss'
'ud_'
'uce'
'tomo'
'that'
'textbook_'
'tab_'
'reckon_'
'paradigm_'
'oppress'
'interna'
'hine'
'grou'
'expressly_'
'dwel'
'delimit'
'debi'
'civilizations_'
'amy'
'Whe'
'Seek'
'Lib'
'Improvement_'
'IOC_'
'INT'
'GNP_'
'Contra'
'unpre'
'thumb'
'soy_'
'rewarded_'
'reside_'
'rati'
'precede'
'popula'
'plantation'
'pandemic_'
'onward'
'obli'
'lamps_'
'itl'
'irrational_'
'incompeten'
'impurit'
'faithfully_'
'deed_'
'conj'
'beautifully_'
'awaited_'
'accomplishments_'
'Rad'
'RENAMO_'
'Eventually_'
'Comme'
'Capacity_'
'whip_'
'understand'
'ump'
'tuck'
'trat'
'suppl'
'stationary_'
'sity_'
'situ_'
'separating_'
'roph'
'recruiting_'
'rar'
'pun_'
'outlines_'
'oe_'
'nders'
'narcotics_'
'merci'
'juic'
'interchange'
'heap_'
'harness_'
'hamper_'
'domains_'
'compos'
'clear'
'class1'
'chickens_'
'cane_'
'bullets_'
'bridg'
'accidental_'
'Specifically_'
'Pis'
'Pale'
'Lay'
'Interest_'
'Dut'
'Concept'
'veteran_'
'restr'
'relocation_'
'recepti'
'oup'
'orienta'
'mber'
'magnif'
'legislat'
'installing_'
'incremental_'
'iles_'
'hub'
'fulfillment_'
'dumped_'
'dividing_'
'dessert_'
'continents_'
'cam'
'agreeing_'
'Option'
'Fly'
'Dir'
'Contracting_'
'Afr'
'ға'
'tibi'
'subscription_'
'simpli'
'repri'
'pilots_'
'pedi'
'outgoing_'
'mosquito_'
'migratory_'
'marketplace_'
'manually_'
'lates_'
'itor'
'healthier_'
'geology_'
'found'
'elevation_'
'eda'
'disappearance_'
'die'
'depositor'
'couch_'
'Stability_'
'Evan'
'Cod'
'Claud'
'Atlanta_'
'Abdul'
'visi'
'vian_'
'underwent_'
'uck'
'transcend'
'subp'
'snatch'
'smelt'
'salvation_'
'resentment_'
'preceded_'
'onom'
'nos_'
'memorial_'
'leaning_'
'jack_'
'itive'
'iste'
'inhuman_'
'infl'
'hydra'
'honora'
'grading_'
'ficti'
'exotic_'
'doctora'
'dian_'
'cienc'
'brushe'
'bear'
'basi'
'Tool'
'Procedures_'
'Niger_'
'Hard_'
'Conduct_'
'AE'
'upb'
'starve'
'sprout'
'sparse'
'saves_'
'reth'
'repetition_'
'remnant'
'protracted_'
'nost'
'materialis'
'inequalities_'
'ime'
'hearings_'
'harmoni'
'gee'
'fountain_'
'extravagan'
'eric'
'drawback'
'dn'
'cob'
'chill_'
'baking_'
'adorn'
'Thanksgiving_'
'Reli'
'Relevant_'
'Maria_'
'Luc'
'Ice_'
'EP_'
'Dea'
'212_'
' ...'
'ге'
'yam'
'verbale_'
'tud'
'towers_'
'tant'
'silently_'
'shin'
'rebellion_'
'prede'
'pneumonia_'
'microstructure_'
'irrep'
'inverse_'
'insure_'
'hel'
'disseminating_'
'disbursement'
'demonstrators_'
'contra'
'chairmen_'
'bail'
'annum_'
'aint'
'Wood_'
'Vit'
'Regular_'
'PA_'
'Maj'
'Kigali_'
'Goals_'
'Dro'
'Compl'
'Comparison_'
'Carry'
'Believe_'
'Armistice_'
'Appr'
'158_'
'153_'
'zy'
'wri'
'undul'
'turkey_'
'tog'
'synchronize'
'phosphorus_'
'numbered_'
'normalization_'
'mm'
'hobb'
'gist'
'flashe'
'fad'
'exceptionally_'
'disb'
'darke'
'creator'
'chn'
'bonuses_'
'arbitra'
'Yue'
'Transportation_'
'TP_'
'Sell'
'Rese'
'Nick_'
'Mic'
'Mechanical_'
'Mayor_'
'MICIVIH_'
'Islamist_'
'Determine'
'Bull'
'136_'
'then'
'scattering_'
'rele'
'outrage'
'ogi'
'offspring_'
'nig'
'museums_'
'morale_'
'izo'
'inquire_'
'injected_'
'ika_'
'hanc'
'factual_'
'dynamism_'
'disrupti'
'deducti'
'cuff'
'coi'
'bureaucratic_'
'barri'
'Writ'
'Simp'
'Bis'
'Belize_'
'214_'
'unrealistic_'
'tours_'
'surro'
'suit'
'sterili'
'starvation_'
'smiles_'
'shrub'
'repercussions_'
'noticeable_'
'hant'
'freed_'
'fell'
'evidently_'
'differentia'
'diagnose_'
'bonded_'
'bob'
'artisan'
'apt_'
'abusi'
'Video_'
'Transnational_'
'Sum'
'Steering_'
'Samuel_'
'RA_'
'Neg'
'Medica'
'Guard'
'. .'
'ны'
'лы'
'rumour'
'preserv'
'outfit_'
'osc'
'ocean'
'ntal_'
'metha'
'markete'
'ited_'
'intensifying_'
'icted_'
'heater_'
'halfway_'
'dispers'
'derivative_'
'crust_'
'cari'
'battlefield_'
'bang'
'acknowledges_'
'USS'
'Sie'
'Rapid_'
'Pru'
'Peaceful_'
'Oscar_'
'MDGs_'
'LU'
'Kitt'
'Henan_'
'Dyna'
'Dalian_'
'Billy_'
'Betty_'
'wield'
'visco'
'violin_'
'vendor_'
'uit_'
'tactical_'
'strai'
'squi'
'sequences_'
'rationality_'
'radically_'
'porosi'
'outsourcing_'
'neurons_'
'murmur'
'morph'
'jin'
'inspiring_'
'hti'
'hemorrhage_'
'exhi'
'educat'
'dum_'
'dispos'
'despo'
'cooled_'
'console_'
'configured_'
'capacit'
'bum'
'brightness_'
'biot'
'assur'
'ales'
'accuse_'
'WC'
'SQL_'
'Observe'
'Mei'
'Leaders_'
'Dat'
'Cr'
'Cow'
'BB'
'wou'
'vand'
'uel'
'turn'
'ssan'
'speeding_'
'quent'
'pools_'
'perseverance_'
'overw'
'oleh_'
'neighbor'
'naturali'
'minus_'
'kinetic_'
'kat_'
'hyp'
'encryption_'
'cyber_'
'continuum_'
'cham'
'boiled_'
'bill'
'amend'
'Script'
'SADC_'
'Registrar_'
'Rama'
'Propo'
'Pret'
'Markets_'
'Manhattan_'
'Glass_'
'touches_'
'symboli'
'socks_'
'skeptic'
'routing_'
'preach'
'polis_'
'oct'
'narrowe'
'lol'
'initiating_'
'grass'
'fis'
'emerges_'
'ein_'
'downstairs_'
'cyclical_'
'choppe'
'Rais'
'REP'
'Prev'
'PS_'
'Officers_'
'Dha'
'Dev'
'Counsel_'
'CS_'
'·'
'vaccination_'
'upe'
'stretching_'
'stare_'
'roll'
'right'
'plank'
'paralysis_'
'nera'
'mimic'
'majest'
'logs_'
'lever_'
'kita_'
'inu'
'hak'
'graceful_'
'feeds_'
'explosions_'
'eon_'
'eon'
'deteriorate_'
'crumbl'
'counterp'
'counterfeit_'
'compulsi'
'cold'
'cavi'
'bark_'
'avert_'
'appliance_'
'anemi'
'aceta'
'Xiang'
'Vene'
'Ultimately_'
'Trib'
'Thro'
'TER'
'Steven_'
'Pos'
'Policies_'
'NA_'
'Leonard'
'Excellent_'
'Disa'
'CAD_'
'tul'
'thyroid_'
'stunning_'
'soo'
'skeleton_'
'sinus'
'scri'
'responds_'
'receptor_'
'receipts_'
'persists_'
'pand'
'motions_'
'mail'
'kr'
'interrelationship'
'innovat'
'inflict'
'hs'
'got'
'erson_'
'enrollment_'
'constrain'
'constituencies_'
'conspiracy_'
'confess_'
'centi'
'bris'
'amplifier_'
'Thr'
'Sector_'
'Sco'
'Properties_'
'Intelligence_'
'ISO_'
'Hui_'
'Handl'
'Down_'
'Civilian_'
'Beh'
'?!_'
'weights_'
'tu_'
'tiona'
'rica'
'repeating_'
'phyl'
'noodles_'
'mole'
'landlord_'
'inflate'
'hotte'
'greet_'
'endemic_'
'deliveries_'
'cuisine_'
'bud_'
'borat'
'ballistic_'
'amma'
'Vac'
'Thou_'
'Sect'
'Sca'
'Refu'
'Economi'
'Compu'
'Compensation_'
'Combin'
'Cola_'
'Asset'
'yin_'
'uto'
'suitcase_'
'repro'
'pla'
'marker_'
'mann'
'mania'
'literat'
'lip'
'jazz_'
'greed_'
'gical_'
'elders_'
'dive'
'cup'
'cornerstone_'
'continual_'
'breed'
'amplif'
'acro'
'Wind_'
'Ladies_'
'Irr'
'Gue'
'Grant_'
'Ande'
'Ae'
'…_'
'те'
'д'
'whistle_'
'whim'
'uncontroll'
'uis'
'tonnes_'
'tendencies_'
'teenager_'
'pulat'
'pronoun'
'patch'
'onn'
'loath'
'kite_'
'indo'
'hormones_'
'homogeneous_'
'gus'
'grill'
'griev'
'extremist_'
'existent_'
'escalate'
'endous'
'enclosure_'
'dunia_'
'diamonds_'
'cov'
'coarse_'
'celebrating_'
'cca'
'ander'
'Wuhan_'
'Tax'
'Scor'
'Request_'
'Meta'
'Lucy_'
'Ker'
'HB'
'CER'
'Apartheid_'
'wavelength_'
'watt'
'undesirable_'
'underwrit'
'tual'
'stark_'
'sso'
'spared_'
'smash'
'skillful'
'scold'
'nting_'
'ngle'
'metre_'
'logge'
'jam'
'interc'
'exhibitions_'
'entrepreneur_'
'dura'
'dia_'
'deform'
'decentralized_'
'critic_'
'confusing_'
'condo'
'chrono'
'assert_'
'Zhen'
'Scar'
'Rever'
'Nelson_'
'Missi'
'Jupiter_'
'Islami'
'Govern'
'Behind_'
'ғы'
'witnessing_'
'tn'
'theo'
'superf'
'snor'
'sludge_'
'rm'
'resilience_'
'regional'
'print'
'polite'
'periphery_'
'parcel_'
'otr'
'opposes_'
'mona'
'mark'
'lized_'
'intrude'
'inhabited_'
'heredit'
'gula'
'feathers_'
'destroy'
'costume_'
'chairmanship_'
'bosses_'
'affiliated_'
'Su_'
'Paul'
'Ore'
'HER'
'Fas'
'Ep'
'Conservative'
'Buy'
'Answer_'
'....'
', `_'
'worship'
'transboundary_'
'teen_'
'superst'
'rhin'
'resisting_'
'rend'
'refiner'
'rape'
'rabbits_'
'quadra'
'phen'
'personalities_'
'parental_'
'ois'
'musta'
'misd'
'mble'
'leas'
'information'
'euph'
'equities_'
'devastated_'
'cop_'
'communism_'
'colli'
'clad'
'anomal'
'ank'
'aca'
'SN'
'Regardless_'
'Mongolian_'
'Maxim'
'Manage'
'Loca'
'HPLC_'
'Collect'
'Bing'
'uali'
'telescope_'
'striker_'
'steep'
'splitting_'
'ressed_'
'reckless_'
'ngka'
'nett'
'mountainous_'
'mie'
'meditat'
'lantern'
'int_'
'imp'
'iag'
'exploded_'
'erni'
'epic_'
'elasticity_'
'dani'
'conserv'
'breaches_'
'aesthetics_'
'Support'
'Consider'
'}'
'sona'
'rene'
'realise_'
'qual'
'pent'
'patrolling_'
'insulat'
'honour'
'fte'
'fright'
'fasci'
'endurance_'
'desert'
'defer'
'broadband_'
'barbari'
'arable_'
'accumulati'
'Wire'
'Venus_'
'Shee'
'Satellite_'
'OL_'
'Las'
'Lakes_'
'IA_'
'Equi'
'Eb'
'Disabled_'
'Dele'
'Car_'
'witch_'
'unr'
'uma'
'skies_'
'rse_'
'qia'
'mortar_'
'invoke_'
'hologra'
'hemisphere_'
'gat'
'eve'
'erc'
'dup'
'doubtful_'
'demilitariz'
'contacted_'
'cious'
'cea'
'bah_'
'anthr'
'allergic_'
'adhere'
'Trusteeship_'
'Seller_'
'Rog'
'Meth'
'Hussein_'
'Got_'
'Gha'
'Buy_'
'Ast'
'Americas_'
'unwanted_'
'uda'
'tril'
'staple_'
'smart'
'shed'
'ses'
'separatist_'
'rup'
'porcelain_'
'perfu'
'patrols_'
'overca'
'orrh'
'offend'
'impact'
'idiot_'
'hop'
'gratif'
'fist'
'ethylene_'
'ected_'
'denominat'
'courtyard_'
'compli'
'catalog_'
'bred_'
'avoidance_'
'assemble_'
'aroma_'
'annu'
'anchor'
'academics_'
'Woo'
'Nurs'
'Moder'
'Logistics_'
'Immun'
'Georg'
'GP'
'Fuz'
'EB'
'Deli'
'Anglo_'
'    '
'vulgar'
'variant_'
'utation'
'uncha'
'ted'
'tb'
'swamp'
'strained_'
'shattered_'
'refresh'
'pte'
'lottery_'
'jack'
'horr'
'grocery_'
'flutter'
'flush_'
'esta'
'channell'
'blasting_'
'bie_'
'audits_'
'ast_'
'Silk_'
'Margaret_'
'Lenin'
'Indicat'
'Dubai_'
'Bah'
'uco'
'stam'
'pesticide_'
'paradise_'
'orat'
'ndu'
'mium_'
'jurisdictions_'
'ified_'
'hypoc'
'gger_'
'foregoing_'
'even'
'encompass_'
'currents_'
'cubic_'
'country'
'citr'
'asses'
'adr'
'adhesion_'
'Week_'
'Tube_'
'Temperature_'
'Simply_'
'Sah'
'SG'
'Reference_'
'Mons'
'Mix'
'Michel'
'Lum'
'Lon'
'Got'
'Fang_'
'Doing_'
'Daw'
'Bulgarian_'
'Arrangements_'
'Amendment_'
'Adapt'
'189'
'xic'
'whipp'
'vens'
'ultras'
'titanium_'
'rem'
'pudd'
'ora_'
'milk'
'measles_'
'matt'
'kang'
'isolat'
'interloc'
'handing_'
'hai'
'giants_'
'flush'
'ented_'
'divorced_'
'dation_'
'antiqu'
'ama_'
'Scot'
'SAR_'
'Referring_'
'Pul'
'Mah'
'Louis'
'Live_'
'Liberal'
'Leo'
'Francis_'
'Fei'
'Electrical_'
'Cons'
'&#_'
'translating_'
'tireless_'
'smit'
'signifi'
'roster_'
'relaxing_'
'piracy_'
'overwhelmed_'
'negati'
'myo'
'malt'
'ku_'
'intangible_'
'inject_'
'imitat'
'hk_'
'fragmentation_'
'examines_'
'evan'
'euros_'
'estimating_'
'drums_'
'dishon'
'diary_'
'determinant'
'dag'
'crystalliz'
'conse'
'cholera_'
'arb'
'WM'
'Victor'
'Safe'
'Neo'
'Head'
'182_'
'zh'
'warranty_'
'tremble'
'traction_'
'supervised_'
'revel'
'requisition'
'picture'
'mutan'
'mold'
'meno'
'leasing_'
'fai'
'expired_'
'environ'
'dynami'
'dt'
'connect'
'chast'
'causal'
'calligraphy_'
'blur'
'bie'
'adventur'
'Success_'
'Shao'
'SARS_'
'Pand'
'Oslo_'
'Narcotic_'
'Manual_'
'Guil'
'Grow'
'Average_'
'Anna_'
'warmer_'
'wagon_'
'verb_'
'stocking'
'spoo'
'soma'
'portions_'
'nin'
'moderniz'
'lov'
'longing_'
'inspir'
'infarction_'
'hab'
'fest'
'evoke'
'ento'
'eck'
'destinations_'
'dero'
'debated_'
'crook'
'chest'
'caps_'
'barr'
'atri'
'adver'
'abolish_'
'Salt_'
'Phar'
'Organic_'
'Negotiating_'
'Massachusetts_'
'MIT'
'Kill'
'Consultation'
'Carn'
'Audi'
'Att'
'Alf'
'242_'
'valua'
'trimm'
'trait_'
'shack'
'rin_'
'rful'
'ral'
'prepo'
'occupies_'
'lunch'
'kor'
'isolate_'
'fraction'
'fide'
'farm'
'ectomy_'
'eba'
'degenerati'
'congr'
'colour'
'christ'
'bundle_'
'bour'
'banquet_'
'attendant_'
'ath'
'ares'
'amba'
'adhe'
'Tree_'
'Timorese_'
'Soft_'
'Peters'
'Pas'
'Paral'
'OH'
'NB'
'Model'
'Lia'
'HR_'
'Granting_'
'Comment'
'Bruce_'
'Brief'
'stuffed_'
'strate'
'stealth'
'spawn'
'shut'
'rut_'
'reap_'
'quarrel'
'poised_'
'overthrow_'
'ocu'
'manipulate_'
'lifel'
'legitim'
'junction_'
'istan_'
'illa'
'hurri'
'hear'
'fit'
'expulsion_'
'epit'
'endi'
'deduc'
'crash'
'casing_'
'busi'
'boxing_'
'bounc'
'bagi_'
'announcements_'
'aggressively_'
'Yin'
'Samoa_'
'Petroleum_'
'Period_'
'PLE'
'Mathematic'
'MP_'
'Karabakh_'
'Invi'
'Info'
'IEC_'
'Enter'
'Eg'
'Carri'
'Canton'
'220_'
'xin_'
'whiske'
'undue_'
'tles_'
'spectator'
'secretariats_'
'roar'
'rk'
'retreat'
'quasi_'
'poles_'
'pharmaceuticals_'
'mira'
'lodge_'
'intrusion_'
'gravi'
'foster'
'fications_'
'fabrication_'
'erect_'
'emulsion_'
'defa'
'aper'
'andan'
'Wild'
'Paraguay_'
'Hag'
'Ess'
'Complete_'
'Christopher_'
'Came'
'500'
'wine'
'vers_'
'vanished_'
'uniforms_'
'sf'
'rotate_'
'resting_'
'puzzl'
'probable_'
'outweigh'
'meticulous'
'mers_'
'merged_'
'lions_'
'inflam'
'immunities_'
'horizon'
'frequencies_'
'expelled_'
'eagerly_'
'daylight_'
'blueprint_'
'athi'
'astern_'
'anticipation_'
'amids'
'activist_'
'Spectr'
'SPE'
'RD'
'Jacob_'
'Ic'
'Houston_'
'Horn'
'Guyana_'
'Circu'
'Carbon_'
'01'
'unify'
'turtle_'
'tere'
'synonym'
'shiny_'
'righteousness_'
'rev'
'raid_'
'principally_'
'preache'
'posters_'
'pid'
'outdated_'
'oath_'
'nes'
'manned_'
'localization_'
'lengths_'
'hoist'
'fili'
'exten'
'ements_'
'embryo_'
'dom'
'diligent_'
'cola'
'chr'
'cans_'
'biting_'
'amazed_'
'acle'
'abrupt_'
'Vegas_'
'Nancy_'
'Impact_'
'Avenue_'
'Apparently_'
',"_'
'！'
'ры'
'yoga_'
'yment'
'wb'
'vinegar_'
'ugh'
'ucky_'
'smear'
'ripple'
'recognised_'
'quench'
'ough'
'locality_'
'left'
'hopeless_'
'hands'
'fry_'
'fret'
'extracting_'
'erati'
'disguise_'
'diabetic_'
'defective_'
'constituting_'
'conquer_'
'clashes_'
'cared_'
'cardi'
'cali'
'behe'
'Plain'
'Ped'
'Laboratory_'
'Hezbollah_'
'Fast_'
'% '
'yle_'
'underpinn'
'ulat'
'spider_'
'riend'
'redo'
'reconstruct'
'reconcil'
'pollutant_'
'physiolog'
'perl'
'perfume_'
'parab'
'nj'
'kep'
'judgments_'
'insider'
'imprisoned_'
'hammer'
'gree'
'err'
'employs_'
'embody_'
'cale'
'blurr'
'atura'
'antage'
'acy_'
'Tap'
'Naz'
'Miller_'
'Lil'
'Hua_'
'Doc'
'Display'
'Dip'
'Deeply_'
'Cere'
'Cass'
'Cana'
'Bahrain_'
'19th_'
'133_'
'visual'
'unsafe_'
'tub_'
'taper'
'savo'
'rescu'
'reneg'
'reins'
'queries_'
'publisher_'
'oring_'
'nea'
'nca'
'navigate_'
'mutt'
'mess'
'lte'
'hose_'
'homo'
'gut_'
'grid'
'foreigner_'
'flock_'
'ffle'
'fei'
'epa'
'eable_'
'draw'
'dicate'
'ciati'
'bells_'
'behavioral_'
'WW'
'Tale'
'Rel'
'Game_'
'wre'
'verge_'
'vault'
'ulcer_'
'transp'
'thirsty_'
'shee'
'sham'
'salesman_'
'regain'
'prai'
'pigeon'
'olig'
'nons'
'modulat'
'materialize'
'make'
'ler'
'hug_'
'halt'
'deceased_'
'contraceptive_'
'concurre'
'colonialism_'
'bomber'
'battle'
'asym'
'arin'
'alert'
'agn'
'aerospace_'
'adhered_'
'additive_'
'accent'
'Uns'
'Ug'
'Shop'
'Role_'
'Poo'
'Parliamentary_'
'Medium_'
'Duke_'
'” (_'
'wreck_'
'uts_'
'upwards_'
'unauthorized_'
'treasures_'
'sif'
'sai'
'reas'
'proprietary_'
'pav'
'onary_'
'incre'
'inci'
'imprint'
'gol'
'fleet'
'exaggerated_'
'esh'
'enumerat'
'endured_'
'emba'
'emb'
'cin_'
'banning_'
'Zhao_'
'UD'
'Tip'
'Stru'
'Netanyahu_'
'Multiple_'
'Metro'
'Leav'
'Jar'
'Intr'
'DL'
'Balkans_'
'Austrian_'
'yz'
'travelers_'
'trave'
'succ'
'strive'
'specimen_'
'select'
'secu'
'scorn'
'rented_'
'pluck'
'overlapping_'
'nav'
'mura'
'merc'
'intermi'
'hook'
'grape_'
'exemplary_'
'ern_'
'emitt'
'differentiate_'
'computational_'
'chatter'
'burglar'
'borrow'
'bond'
'bishop_'
'adolescent_'
'Wee'
'Serge'
'SION'
'Requirements_'
'Om'
'Oc'
'Manu'
'Import'
'Color_'
'1930_'
'142_'
'не'
'жа'
'uing_'
'trans_'
'tr'
'superi'
'stamp'
'socket_'
'robbed_'
'replicate'
'repatriate'
'recollect'
'publiciz'
'profi'
'plunge_'
'ost_'
'mock_'
'lian_'
'leased_'
'hr_'
'fol'
'flagrant_'
'expounded_'
'dst'
'dean_'
'culminate'
'cries_'
'constitution'
'concealed_'
'capitals_'
'ancestr'
'accede_'
'TC_'
'Ocean'
'Jiang'
'Hyper'
'HS'
'HP_'
'Eric_'
'ERA'
'Dong_'
'Coming_'
'Coca_'
'Arb'
'= _'
'ол'
'wildly_'
'tub'
'trainers_'
'toc'
'tailored_'
'slogan_'
'retic'
'regiment'
'prot'
'phr'
'myocardial_'
'meag'
'magic'
'kling_'
'ite'
'guerrilla'
'envision'
'enn'
'dite'
'diplomat_'
'dictate_'
'destabilizing_'
'ddy_'
'congressional_'
'clustering_'
'closet_'
'antibody_'
'anic'
'alized_'
'Speciali'
'Mort'
'Mali'
'Laws_'
'Honor'
'Hand_'
'Ha_'
'Equally_'
'Dru'
'151_'
'ysi'
'waved_'
'voi'
'veins_'
'underscored_'
'stern_'
'skating_'
'priests_'
'nl'
'leti'
'itati'
'het_'
'groo'
'fist_'
'excu'
'enth_'
'condition'
'color'
'cog'
'blunt_'
'atte'
'analogy_'
'affirmative_'
'aI'
'Writing_'
'Will'
'Tour'
'Testing_'
'Stat'
'Resi'
'Rema'
'Pla'
'Pennsylvania_'
'Investigat'
'Ib'
'Brexit_'
'weed_'
'untru'
'unaware_'
'totalled_'
'state'
'ssion'
'someday_'
'route'
'rig'
'recognise_'
'perio'
'nsa'
'holi'
'gold'
'faded_'
'enjoyable_'
'drowned_'
'disposable_'
'dismiss_'
'differs_'
'corr'
'contempt_'
'compatriots_'
'compass_'
'booking_'
'backbone_'
'annoy'
'agro_'
'Sprin'
'Roug'
'Recovery_'
'Raj'
'RED'
'Quite_'
'Olive'
'Lag'
'Depending_'
'Counter'
'Composite_'
'Classic'
'warrants_'
'verb'
'uncommon_'
'trusts_'
'stabl'
'rite_'
'ring'
'renovat'
'refining_'
'prepares_'
'pati'
'overweight_'
'mixe'
'mentor'
'march'
'manuals_'
'malicious_'
'lescen'
'lace'
'fullest_'
'fellowship_'
'embark_'
'eject'
'cleric'
'bloom'
'anim'
'advisor'
'TCM_'
'Stress_'
'Ohio_'
'Nie'
'Jose'
'Inco'
'Gol'
'Bar_'
'Alaska_'
'1963_'
' . "_'
'tribu'
'sticky_'
'sam'
'rted_'
'rende'
'radiat'
'phobi'
'partition'
'nome'
'minate'
'inva'
'gie'
'ferri'
'exhibits_'
'embodies_'
'dispro'
'crib'
'consum'
'consequent_'
'consen'
'complemented_'
'coefficients_'
'class10_'
'chlorin'
'carp'
'Warm'
'Site_'
'Salm'
'Roger_'
'HF'
'Cent'
'8'
'07_'
'zable_'
'ymp'
'tter'
'timid'
'thigh'
'stunt'
'sist'
'satisfactorily_'
'reside'
'renew'
'reat'
'rave'
'rattle'
'profit'
'pneumatic_'
'interco'
'humour_'
'hic_'
'heights_'
'garments_'
'fix'
'commentator'
'carto'
'Zha'
'Quan'
'Pay_'
'Object'
'Jason_'
'FIC'
'Chronic'
' +'
'tow_'
'smokers_'
'smells_'
'slot'
'shop'
'ribbon_'
'reciprocal_'
'prayers_'
'pom'
'neo_'
'milli'
'mile'
'lder'
'journals_'
'iza'
'incidental'
'inces'
'hut_'
'halted_'
'govern'
'glide'
'expires_'
'etting_'
'deposit'
'coloniz'
'clot'
'brochure'
'bleach'
'benef'
'auditors_'
'appearances_'
'Meteorological_'
'Every'
'Ensuring_'
'Directors_'
'Bara'
'Automo'
'1948_'
'zoo'
'urat'
'trap'
'suck_'
'spring'
'reper'
'pill_'
'nucle'
'microorganism'
'median_'
'ides_'
'herd_'
'furious_'
'forth'
'dung'
'discouraged_'
'cottage_'
'circulating_'
'blow'
'avail_'
'alkali_'
'afforded_'
'Vu'
'Pollution_'
'Peng'
'Patr'
'PRST_'
'Jong_'
'Jenny_'
'Exercise_'
'Eat_'
'Draw'
'Dominican_'
'Bet'
'Analys'
'ма'
'udi'
'thru'
'suff'
'stubb'
'sniff'
'small'
'restructure_'
'repe'
'plast'
'phosph'
'oblig'
'moc'
'milling_'
'lesions_'
'inexpensive_'
'ind_'
'hotl'
'hasi'
'habitat'
'duplicat'
'downstream_'
'deems_'
'corp'
'catch'
'bounds_'
'artificially_'
'apt'
'XII'
'Ope'
'Michigan_'
'Mem'
'Hungarian_'
'Ground'
'GP_'
'Extract'
'Expo_'
'Davis_'
'Cycl'
'Boy_'
'Bli'
'Administ'
'06_'
'walk'
'usable_'
'tribes_'
'traced_'
'tini'
'succeeding_'
'suburbs_'
'solder'
'pio'
'nodded_'
'nings_'
'neighbourhood_'
'miser'
'loose'
'husbands_'
'hostages_'
'hmi'
'hike'
'heads'
'greeting_'
'fragrant_'
'expire_'
'ett_'
'ecl'
'discredit'
'deva'
'decrees_'
'convertible_'
'conserve_'
'cereal_'
'bypass_'
'aqui'
'approves_'
'abruptly_'
'Train'
'Remote_'
'Position'
'Newton_'
'Gao_'
'Colle'
'Cin'
'Bash'
'AK'
'AG_'
'ult_'
'titution'
'tire'
'tectonic_'
'teas'
'reus'
'reass'
'olate'
'lure_'
'herb'
'harmonize_'
'habitual'
'good'
'ffin_'
'erri'
'entertain_'
'dium'
'dash'
'dared_'
'cooler_'
'conditioned_'
'commi'
'clinic'
'cide'
'candles_'
'ater'
'allegation_'
'Volu'
'Ven'
'Solar_'
'Ras'
'Pitt'
'Oo'
'MEN'
'Hero'
'Haz'
'Fact'
'Carl_'
'Bron'
'Bad'
'Achi'
'? ''
'urg'
'unsur'
'unm'
'umn'
'synthe'
'sulphur'
'sleeve'
'roam'
'ratif'
'pis'
'photographer_'
'orate'
'oir'
'objectivity_'
'nob'
'neur'
'mpa'
'martyr'
'manifested_'
'lime_'
'laced_'
'hit'
'highlighting_'
'graft'
'foodstuffs_'
'ention_'
'distraction'
'dart'
'confidentiality_'
'butt'
'Show'
'Ref'
'Preventi'
'Pole'
'Pipe'
'Matters_'
'MF'
'Franklin_'
'Fail'
'Compar'
'Chairperson_'
'Carolina_'
'tane'
'superstitio'
'sufficiency_'
'strokes_'
'slightest_'
'shrimp_'
'script'
'pulls_'
'kis'
'indict'
'hexa'
'functionality_'
'exchanging_'
'din_'
'crystalline_'
'cancers_'
'antigen'
'anod'
'absorbe'
'XVI'
'Previous_'
'Mani'
'Join'
'Jia_'
'Jedi_'
'Hes'
'Elli'
'Deposit'
'DER'
'Choi'
'Asked_'
'137_'
'0s_'
'unbo'
'termin'
'spru'
'slender_'
'servo_'
'sediment'
'rosi'
'repeat'
'referee_'
'redr'
'organise'
'oblige'
'nger_'
'liti'
'learners_'
'lage_'
'juga_'
'homosexual'
'gown_'
'gie_'
'ffer'
'fertili'
'excla'
'ette'
'engages_'
'emu'
'disappoint'
'differentiated_'
'cry'
'catering_'
'Surface_'
'Shah'
'Said_'
'Quick_'
'Personal'
'Firm'
'Doll'
'Director'
'Database_'
'Build'
'Ahm'
'Abi'
'?”_'
'...'
'zar'
'xide_'
'weary_'
'verba'
'uv'
'unal'
'sober_'
'smarte'
'sifi'
'seat'
'sauce'
'resta'
'reinve'
'reac'
'polished_'
'pirate'
'pilgrim'
'parallel'
'oon'
'nv'
'nder'
'myth'
'muscular_'
'monoton'
'migrate_'
'lett'
'ios'
'inseparable_'
'inlet_'
'incubat'
'ille_'
'guil'
'eries_'
'eau'
'distressed_'
'diat'
'clamp'
'canvas_'
'calib'
'biog'
'baru_'
'awfully_'
'allegi'
'Treati'
'Spl'
'Reduce'
'Paint'
'Metal_'
'Madame_'
'Increas'
'Fourthly_'
'FT_'
'Confucius_'
'BT_'
'：'
'volu'
'vant'
'uran'
'unremitting_'
'uce_'
'transporting_'
'tow'
'surge'
'rtion'
'rest'
'rations_'
'practicable_'
'misfortune_'
'millionaire'
'iel'
'iati'
'hn_'
'gsh'
'gly'
'flirt'
'fas'
'divert_'
'directive_'
'cocaine_'
'atas'
'arthritis_'
'ador'
']'
'Sens'
'Radi'
'Preliminary_'
'NF'
'Monrovia_'
'Gera'
'DT'
'Alumin'
' , '
'validate_'
'unhe'
'underwear_'
'shouting_'
'scarf_'
'royalt'
'reacted_'
'raphy_'
'pren'
'persona'
'overhaul_'
'nominee'
'nians_'
'nat'
'lys'
'jah'
'header_'
'gk'
'fellows_'
'excite'
'elites_'
'dled_'
'dismissal_'
'deterrent_'
'derives_'
'debat'
'covenant'
'belts_'
'base'
'attri'
'assists_'
'airli'
'abstentions_'
'Stre'
'Persian_'
'Measurement_'
'Int'
'Hs'
'Discuss'
'Aff'
'Advis'
'writ'
'tonn'
'tensile_'
'spectromet'
'sensitiz'
'sas'
'professional'
'poster_'
'petal'
'nonetheless_'
'murder'
'model'
'mischie'
'miniature_'
'lumbar_'
'insurgent'
'hurting_'
'http_'
'harmless_'
'force'
'exerted_'
'exalt'
'ening_'
'dispel'
'deficient_'
'dead'
'ashes_'
'antid'
'anesthesia_'
'adequacy_'
'Sr'
'NCE'
'JP'
'Happiness_'
'Enr'
'Efficiency_'
'Economists_'
'Cool'
'Chee'
'CAR'
'ABC_'
'213_'
'鈥檛_'
'witt'
'unacc'
'theatr'
'teenage_'
'tapes_'
'stein_'
'slate'
'shocking_'
'riet'
'revert_'
'repository_'
'postm'
'lenc'
'lase'
'ky'
'keyword'
'ivity_'
'insane_'
'inorganic_'
'hierarchical_'
'gb'
'fume'
'fting_'
'fronts_'
'expounds_'
'eca'
'consciously_'
'complaining_'
'compa'
'characterization_'
'capillary_'
'briefed_'
'blende'
'Witness'
'Shir'
'Particular_'
'Laun'
'Hall'
'Export'
'Delegations_'
'Conve'
'Buffett_'
'://_'
'131_'
'– _'
'vigor_'
'trumpet'
'tely_'
'tattoo'
'straighten'
'shorten_'
'scramble'
'scour'
'scary_'
'roast'
'recessi'
'prote'
'popularize'
'phant'
'pearl_'
'partic'
'nesia'
'machin'
'lfi'
'legendary_'
'laure'
'hud'
'haul_'
'hamp'
'geti'
'frat'
'equate'
'embarrassment_'
'dominat'
'distrust_'
'crou'
'burden'
'ascend'
'aristocra'
'ammonia_'
'Zedong_'
'Tsa'
'SY'
'Pull'
'Progr'
'Prepare_'
'Kay'
'Forty_'
'FU'
'CIR'
'Apo'
'； _'
'tive'
'synthesize'
'specialization_'
'smi'
'rak'
'raf'
'proprietor'
'philanthrop'
'permitting_'
'parity_'
'owi'
'organi'
'opia'
'necklace_'
'mediate_'
'lve'
'kese'
'interv'
'hid'
'hash'
'glitter'
'fund'
'eur'
'electrom'
'ein'
'daw'
'danced_'
'consign'
'conservancy_'
'confl'
'composites_'
'cano'
'akes'
'Virgin_'
'Vehicle'
'Nichol'
'Mov'
'Meng'
'Leon'
'GEN'
'Forma'
'Bloom'
'Activ'
'2030_'
'wool'
'vals_'
'ulsion_'
'tal'
'syntax_'
'strengthens_'
'rods_'
'rle'
'racy_'
'quick'
'proverb'
'predominantly_'
'perm'
'opti'
'ngi'
'natal_'
'mou'
'lumber'
'lita'
'licences_'
'leach'
'iture_'
'ith_'
'ishes_'
'irrev'
'hia'
'formations_'
'climatic_'
'cancel'
'blossom'
'amuse'
'aded_'
'YE'
'Select'
'STR'
'Radio'
'Qi_'
'Optimiz'
'Maintenance_'
'Grav'
'Fac'
'Concern_'
'Chrom'
'Beng'
'152_'
'р_'
'он'
'upheld_'
'upgraded_'
'undr'
'underc'
'umati'
'subscriber'
'strait'
'sixt'
'rto'
'pi_'
'offerings_'
'notch'
'newest_'
'linea'
'interconnect'
'ilita'
'heale'
'glori'
'gged_'
'foreseeable_'
'ephe'
'drift'
'dor_'
'count'
'costing_'
'colog'
'butt_'
'alization_'
'Wall'
'Strategies_'
'Recommend'
'Recognizes_'
'Offer'
'Lead_'
'Funds_'
'Farmers_'
'Chrysler_'
'Cen'
'Cell'
'Bren'
'Bes'
'BC'
'750_'
'uret'
'therefrom_'
'swan'
'sod'
'riot_'
'rapi'
'quee'
'perat'
'nsel'
'nozzle_'
'mend_'
'ledge'
'lain_'
'iff_'
'hunt'
'grati'
'finals_'
'fanatic'
'etics_'
'disciples_'
'contin'
'comrades_'
'competenc'
'chambers_'
'anthem'
'act'
'\u\u'
'Vic'
'Theoretical'
'Sophie_'
'Recon'
'Fear_'
'Express_'
'Directi'
'Compli'
'Ches'
'Carter_'
'wrench'
'testi'
'sketch_'
'senator_'
'rivalry_'
'rainbow_'
'purpose'
'pull'
'plummet'
'neuros'
'motivate_'
'levied_'
'lesse'
'jail'
'inis'
'imperialist'
'icia'
'hew'
'haste_'
'gnanc'
'fluctuat'
'empo'
'eclipse_'
'devaluation_'
'demobilized_'
'deforestation_'
'ction'
'congenital_'
'cca_'
'budgeting_'
'blades_'
'attenuat'
'archaeologi'
'alig'
'Ves'
'Resol'
'Pow'
'Murd'
'Miami_'
'LD_'
'Jonathan_'
'Harbo'
'HA_'
'Factory_'
'FC_'
'Eurasia'
'Bell_'
'Auto_'
'Aba'
'") _'
'vr'
'vene'
'unna'
'unman'
'underli'
'stirring_'
'raining_'
'presided_'
'pollute'
'ntu'
'nso'
'noc'
'multitude_'
'moist_'
'impaired_'
'homogen'
'hijack'
'hacker'
'fall'
'evade'
'electrons_'
'eed_'
'drastically_'
'drama'
'drain'
'doom'
'dissolve_'
'dash_'
'containment_'
'confession_'
'collectiv'
'brai'
'arrogant_'
'appreciati'
'anz'
'antioxidant'
'anthropolog'
'alri'
'abnormalit'
'Xiaoping_'
'Workshop_'
'Wales_'
'Thinking_'
'Symposium_'
'STO'
'MAT'
'Jerry_'
'Inte'
'Grai'
'DN'
'Brow'
'Ans'
'Adjust'
'000'
' . . ._'
'wu'
'waking_'
'uth'
'uneasy_'
'underestimate_'
'trop'
'tism_'
'tactic_'
'strange'
'spicy_'
'sio'
'shrug'
'sewer'
'redistribution_'
'prostitute'
'prime'
'pointer_'
'perfecti'
'papa'
'mete'
'mann_'
'lusion_'
'indulgen'
'hare'
'gno'
'gab'
'freeze'
'fragment'
'fanci'
'ership_'
'dove'
'direct'
'deter'
'debug'
'dancer_'
'crafts_'
'coup'
'cida'
'ass'
'anu'
'Zon'
'Siberia'
'Seed'
'Repeat'
'Nei'
'Marie_'
'MR'
'Jia'
'Grand'
'Cab'
'204'
'  , _'
'vitamins_'
'ulu'
'thel'
'tens'
'swimmer'
'quent_'
'protest'
'parasite'
'nis_'
'murderer_'
'mond_'
'memper'
'ltu'
'loma'
'lf'
'inti'
'interrogat'
'hydroly'
'geli'
'ether_'
'dough_'
'dosage_'
'delu'
'deepened_'
'corti'
'conferred_'
'bronchi'
'bloodshed_'
'backwards_'
'anda_'
'aloud_'
'abdomen_'
'Vas'
'Users_'
'Referen'
'Mine'
'Mind_'
'Kind'
'Iraqis_'
'Hainan_'
'Greeks_'
'Gr'
'Cypriots_'
'Character'
'Chan_'
'Abuja_'
'134_'
' ]'
'thwart'
'thrille'
'thrift'
'thicke'
'suns'
'sibility_'
'setback_'
'seam_'
'rewrit'
'resisted_'
'prohibiting_'
'pathway_'
'overturn'
'nephr'
'mar_'
'intermedia'
'herb_'
'erte'
'erl'
'elop'
'devour'
'deserted_'
'contend_'
'constituents_'
'chop_'
'ZA'
'Walter_'
'Tao_'
'Send_'
'Plane'
'Manufacturing_'
'Logi'
'LONDON_'
'Hui'
'Hot'
'Diana_'
'Beauty_'
'Beat'
'200'
'1964_'
' 、 _'
'wel'
'urne'
'unrestr'
'uniformly_'
'uer'
'twi'
'tial_'
'teria_'
'squat'
'sock'
'rici'
'riches_'
'republics_'
'pir'
'payroll_'
'oria'
'obscur'
'notic'
'monument_'
'mistrust_'
'meth'
'mercury_'
'lipo'
'kni'
'interpreter_'
'holl'
'gz'
'fury_'
'electi'
'eat'
'dont_'
'discriminate_'
'dialect_'
'dele'
'deceive_'
'cracker'
'affirm_'
'Wine_'
'Trying_'
'Revi'
'Provisional_'
'Problem_'
'Medvedev_'
'Imperial_'
'Hamm'
'Gau'
'FBI_'
'Ena'
'Border'
'8th_'
'263'
'xon'
'vou'
'vor_'
'vag'
'totali'
'tment'
'till'
'tease'
'tations_'
'suction_'
'ssor'
'shaken_'
'seventy_'
'saturated_'
'roman'
'refine_'
'persecution_'
'ngan_'
'neutraliz'
'microe'
'lawmakers_'
'kera'
'journalism_'
'inventories_'
'groove_'
'flaw_'
'ersi'
'debut_'
'coordinators_'
'coa'
'censorship_'
'cape_'
'bench'
'acious_'
'WSJ_'
'Philip_'
'Oz'
'Orient'
'Mun'
'Made_'
'Jac'
'Guang'
'Dud'
'Dream_'
'CCP'
'Aq'
'Afterward'
'ай'
'weak'
'tracing_'
'staged_'
'screaming_'
'recover'
'perturb'
'pad'
'nov'
'nin_'
'misu'
'major'
'liza'
'jad'
'itali'
'inefficienc'
'glacier'
'fractur'
'fini'
'dabl'
'come'
'circus_'
'cif'
'chir'
'acula'
'Zoo'
'UF'
'Toronto_'
'Terrorism_'
'Silv'
'Sharon_'
'Rhe'
'Returns_'
'Repa'
'Protecti'
'Protect'
'Oct'
'Harris'
'Formation_'
'Fie'
'Feed'
'Component'
'Broadcast'
'Back'
'Anima'
'05'
'а_'
'unrelated_'
'unhealthy_'
'thaw'
'tenaci'
'superh'
'spike_'
'reconfi'
'rampant_'
'prom'
'professions_'
'postoperative_'
'obtains_'
'normative_'
'niche_'
'minis'
'lucrative_'
'kes'
'jes'
'iah_'
'horrifi'
'grum'
'gic'
'federa'
'ently_'
'editors_'
'download'
'discriminat'
'deg'
'butter'
'brink_'
'breadth_'
'bos'
'assassinat'
'announcing_'
'amus'
'accommodati'
'Whole_'
'Veri'
'Rose'
'Picture'
'Peri'
'Participation_'
'Madagascar_'
'MC_'
'Kang'
'Gorge'
'Gard'
'Emphasizing_'
'Dub'
'Background_'
'Aim'
'wholes'
'ute_'
'tic'
'talk'
'tac'
'subsection_'
'spoil_'
'shoot'
'rsi'
'payer'
'paradox_'
'kle'
'kidnap'
'hound'
'granule'
'endeavour'
'eighty_'
'discou'
'departmental_'
'compromised_'
'characterize_'
'candida'
'Remov'
'Optim'
'Operational_'
'Mitt'
'Laden_'
'Gong'
'Ey'
'Drive'
'Chi_'
'Benjamin_'
'".'
' ~'
'vern'
'unli'
'uence_'
'uba'
'tortured_'
'tively_'
'thinne'
'thankful_'
'spherical_'
'send'
'patriotic_'
'oper'
'notebook_'
'nac'
'lor_'
'jecti'
'inhibition_'
'inel'
'holistic_'
'hect'
'fringe_'
'fascis'
'excis'
'erna'
'electrolyt'
'compensated_'
'coma_'
'bleak_'
'aud'
'ascertain'
'arbitrat'
'acidi'
'Zin'
'Revol'
'Proce'
'Night_'
'Lewis_'
'Levi'
'Aspe'
'165_'
'ер'
'tougher_'
'tendering_'
'sports'
'spit_'
'slaughter_'
'secara_'
'scant'
'remitt'
'predicts_'
'omic'
'obstruct_'
'metabolic_'
'locals_'
'isto'
'intersection_'
'inconsistenc'
'hre'
'horri'
'hoard'
'geop'
'forward'
'experiment'
'expansion'
'endowment'
'endoscop'
'crop'
'crisp_'
'converting_'
'contemp'
'chant'
'brokers_'
'boost'
'bestow'
'avoid'
'ail_'
'aggress'
'acti'
'Yin_'
'Pentagon_'
'Mam'
'Left_'
'Increasing_'
'HSBC_'
'Finn'
'Execut'
'Corps_'
'Bod'
'Bak'
'Amar'
'AH'
'vid'
'ustr'
'unsuccessful_'
'ulate_'
'tool'
'tings_'
'slab_'
'signatories_'
'sewing_'
'replica'
'rall'
'quartering_'
'profess'
'phar'
'opho'
'ntin'
'neighbourl'
'madam_'
'ligat'
'jou'
'impending_'
'hkan_'
'gnant_'
'gamb'
'fuse_'
'furi'
'fetal_'
'favored_'
'escort_'
'electorate_'
'deduction_'
'cramp'
'cornea'
'copied_'
'contamina'
'confuse_'
'conce'
'arranging_'
'analytic_'
'alarmed_'
'afterward_'
'addi'
'Visi'
'Structural_'
'Sm'
'Nokia_'
'Legislat'
'Hon'
'Hawk'
'Function'
'Estimate'
'Dete'
'Challenge'
'tch'
'ssie'
'shopper'
'separatis'
'scholarships_'
'saver'
'rer'
'precipi'
'oversh'
'outla'
'nationali'
'memorable_'
'iterati'
'invaded_'
'imperfect_'
'disorder'
'data'
'crab_'
'counteract'
'correctness_'
'compliment_'
'cod'
'clues_'
'chang_'
'captiv'
'bonding_'
'ardo'
'anonymous_'
'advisable_'
'activate_'
'Volunteers_'
'Suppose_'
'Sav'
'Registry_'
'RF'
'Items_'
'ICE'
'Experiment_'
'Count'
'Blue'
'Barri'
'Are'
'Algorithm_'
'218_'
'weather'
'watermark'
'tricky_'
'tious_'
'tine'
'timel'
'thermos'
'surviving_'
'skim'
'seafood_'
'refra'
'realist'
'quel'
'press'
'northe'
'nh'
'name'
'mund'
'minimiz'
'llis'
'insurer_'
'ines'
'indec'
'harass'
'fleeing_'
'epide'
'entran'
'enrolled_'
'encrypt'
'eel'
'durability_'
'dome'
'distillation_'
'dissipate'
'displace'
'disparity_'
'dest'
'clutch_'
'cio'
'burger'
'UNV_'
'Response_'
'Reagan_'
'Organiz'
'Kuwaiti_'
'Hono'
'Holdings_'
'Function_'
'Divi'
'Dao'
'Conse'
'Characteri'
'267'
'1961_'
'worms_'
'unforeseen_'
'tamp'
'submissions_'
'slack_'
'shoots_'
'scream'
'rumors_'
'rebalanc'
'protectionist_'
'plots_'
'piles_'
'pane'
'nny'
'ished_'
'investigative_'
'headline_'
'gears_'
'fluidi'
'first'
'eyeb'
'edu'
'daunting_'
'culi'
'crip'
'corresponds_'
'condensat'
'cci'
'cafe'
'bathe'
'Shia_'
'SOA'
'Passenger'
'Mae_'
'Height'
'Guizhou_'
'Dem'
'Compe'
'Basi'
'Abb'
'262'
'ventr'
'tach'
'strap_'
'stimulated_'
'sth_'
'sph'
'sign'
'sava'
'rso'
'quir'
'piri'
'pig'
'pap'
'omis'
'nomina'
'modest'
'microscopic_'
'loot'
'leverag'
'itu_'
'insulate'
'hem_'
'harg'
'excavation_'
'etta'
'etio'
'enz'
'drou'
'depletion_'
'deo'
'delet'
'comi'
'combinations_'
'circulate_'
'came'
'brother'
'brave'
'bibliograph'
'bert'
'beri'
'ania_'
'Tenn'
'Pris'
'Nitr'
'IPO_'
'GC_'
'Contracts_'
'Calc'
'Biha'
'Bake'
'167_'
' '._'
'weeds_'
'volleyball_'
'unded_'
'terrestrial_'
'technic_'
'tai_'
'sties_'
'steel'
'sings_'
'shone_'
'sembl'
'salut'
'refi'
'reca'
'procuratorates_'
'photographe'
'oxida'
'oco'
'nk_'
'moth_'
'melody_'
'lete'
'legislator'
'heighten'
'glove_'
'folia'
'exponential'
'endowed_'
'emblem'
'drone'
'dodg'
'dles'
'crushing_'
'criminali'
'contention_'
'contemplati'
'confiscation_'
'conciliation_'
'centrally_'
'byp'
'buffet'
'balla'
'baked_'
'automat'
'assemblies_'
'ara_'
'ament_'
'additives_'
'acquaintance_'
'User_'
'Rout'
'Nig'
'Nag'
'Mobil'
'MAC'
'Jor'
'Jiabao_'
'Illinois_'
'Detroit_'
'Cell_'
'Asia'
'ycles_'
'von'
'ventricular_'
'tuning_'
'terminals_'
'stained_'
'sor_'
'reformed_'
'reactivat'
'queu'
'quence'
'premi'
'meadow'
'longevity_'
'logo'
'lifelong_'
'lent'
'ju_'
'initial'
'iece_'
'grap'
'gid'
'fireworks_'
'feather_'
'enzymes_'
'doubt'
'donkey_'
'debugging_'
'concept'
'chen_'
'booked_'
'assertion_'
'agendas_'
'Tric'
'Prospe'
'Mong'
'McDonald_'
'Maintain_'
'Liste'
'Jew'
'Exce'
'Devi'
'Demand_'
'Bhut'
'230_'
'1951_'
'workflow_'
'validated_'
'ure'
'tus'
'symmetry_'
'switches_'
'solo_'
'shima_'
'setbacks_'
'scro'
'res'
'reproduce_'
'relentless_'
'rationali'
'quicker_'
'pup'
'pronunciation_'
'pollen_'
'plausible_'
'plateau_'
'pb'
'pamp'
'oce'
'nun'
'mould'
'membran'
'mean'
'jurisprudence_'
'interruption_'
'icy_'
'honey'
'gallon_'
'forest'
'fishermen_'
'erecti'
'eo_'
'dj'
'deadlines_'
'cte'
'contributor_'
'cient'
'anan'
'amn'
'agreeable_'
'Waste_'
'Stand_'
'Rhod'
'Past'
'Part'
'Owen_'
'Honey_'
'Emily_'
'Drop'
'144_'
'unsatisfactory_'
'unexpl'
'tric_'
'tne'
'teta'
'scream_'
'provoked_'
'pid_'
'mum_'
'monks_'
'modifying_'
'militia'
'longs'
'index'
'genetically_'
'ente'
'disg'
'dilat'
'dew_'
'dentist_'
'decorative_'
'compiler_'
'cater_'
'canceled_'
'camping_'
'bt'
'bitte'
'bids_'
'amateur_'
'acres_'
'Tens'
'Shaw'
'Ryan_'
'OW'
'Lec'
'Kenn'
'Hab'
'Civi'
'CK_'
'Bank'
'ventilat'
'une_'
'terp'
'tem'
'stea'
'statutes_'
'rmed_'
'recr'
'readings_'
'rallie'
'provoke_'
'practised_'
'perch'
'peptide'
'pelvi'
'patte'
'nip'
'moti'
'morbidity_'
'militants_'
'libra'
'kindergarten_'
'irritate'
'impatien'
'hug'
'gua'
'gent'
'expands_'
'eving_'
'evaporation_'
'chef_'
'berries_'
'atively_'
'annoying_'
'Warren_'
'Scottish_'
'Safeguard'
'Row'
'Philosoph'
'Nort'
'Nea'
'Motor'
'Mira'
'Jes'
'Indo'
'Gift'
'CAS'
'Anhui_'
'AI_'
'trati'
'term'
'sights_'
'sidewa'
'saith_'
'rass'
'physicist'
'multidisciplinary_'
'mills_'
'luxurious_'
'lotus_'
'latent_'
'insistence_'
'gag'
'finaliz'
'emic'
'elf_'
'eiv'
'doe'
'consi'
'concentrating_'
'computed_'
'coercion_'
'cil'
'chit'
'capi'
'breakthroughs_'
'Religious_'
'Provinc'
'Plas'
'Penalt'
'Mana'
'Kent'
'Hep'
'Gram'
'Focus_'
'Explore'
'Dua'
'Darwin_'
'Croat_'
'Actua'
'Access'
'227_'
'1969_'
'ия'
'translator_'
'tible_'
'tart'
'stressing_'
'salmon_'
'sadd'
'robe'
'revitaliz'
'restructured_'
'reason'
'polio_'
'paras'
'pact_'
'outbreaks_'
'monkeys_'
'moan'
'misuse_'
'memoriz'
'longitudinal_'
'intestine'
'interl'
'ingen'
'inga'
'hydroc'
'hill'
'font_'
'flung_'
'flip_'
'exacerbate_'
'empower_'
'elusive_'
'clock'
'careless'
'bout_'
'boro'
'antim'
'SMEs_'
'Racism_'
'Pota'
'Monitor_'
'JU'
'Helm'
'Dim'
'Bomb'
'ACABQ_'
'148_'
' ;_'
'tempered_'
'tame'
'swirl'
'stor_'
'sounding_'
'rock'
'replication_'
'rectangular_'
'rami'
'pran'
'ppl'
'oming_'
'nm'
'litter_'
'laun'
'kable_'
'isc'
'hydropower_'
'greedy_'
'greatness_'
'glim'
'functiona'
'eit'
'dors_'
'disgust'
'discl'
'dian'
'devi'
'deduced_'
'bulletin_'
'app_'
'UI'
'Tiger_'
'Shak'
'Plastic_'
'Pend'
'LED_'
'Girls_'
'Equit'
'Doctors_'
'Departments_'
'Clean'
'Boeing_'
'Bec'
[...]
